/**
  ******************************************************************************
  * @file    network_4_data_params.c
  * @author  AST Embedded Analytics Research Platform
  * @date    2026-05-11T08:24:39+0700
  * @brief   AI Tool Automatic Code Generator for Embedded NN computing
  ******************************************************************************
  * Copyright (c) 2026 STMicroelectronics.
  * All rights reserved.
  *
  * This software is licensed under terms that can be found in the LICENSE file
  * in the root directory of this software component.
  * If no LICENSE file comes with this software, it is provided AS-IS.
  ******************************************************************************
  */

#include "network_4_data_params.h"


/**  Activations Section  ****************************************************/
ai_handle g_network_4_activations_table[1 + 2] = {
  AI_HANDLE_PTR(AI_MAGIC_MARKER),
  AI_HANDLE_PTR(NULL),
  AI_HANDLE_PTR(AI_MAGIC_MARKER),
};




/**  Weights Section  ********************************************************/
AI_ALIGNED(32)
const ai_u64 s_network_4_weights_array_u64[3878] = {
  0xbdb976ee3e6e7663U, 0x3edfbc2380000000U, 0x3e1dba7c3e490f8fU, 0xbee0741580000000U,
  0xbdc41e7800000000U, 0x3e24e91a80000000U, 0x800000003ed5d385U, 0xbdc009d33e3b77f2U,
  0xbec4efe6bea8e4c6U, 0xbf1bd5ef80000000U, 0x80000000bfa90861U, 0x3f613438bf92616eU,
  0x800000003f72c985U, 0x80000000befa800aU, 0x3ead1e1c3e286c0bU, 0x3e9e9d8700000000U,
  0xbe8095a93e21655dU, 0xbecad36abe929ee3U, 0xbeda214bbef01217U, 0xbf336392be8aed39U,
  0x3e52b952U, 0xbf72c03cbf0d6152U, 0xbf2283f1bf569e1eU, 0x3f5bcc853faaf49cU,
  0x3e9b0d9fU, 0xbfc7b2793eacbb2aU, 0x4021406c3f61fcf2U, 0x3eecce63bf4df5dcU,
  0xc00eb929U, 0xbf019a3600000000U, 0x400caac5c019e777U, 0x3dec55863f627041U,
  0xbd82c40000000000U, 0x3ec58283bdf380beU, 0xbde09c9d3ec45592U, 0x80000000be648869U,
  0x3e4b3fce3e5741a1U, 0x3e39c24d3e6a1336U, 0xbeece5aa3f346b80U, 0x3e1671ae3ed71ec7U,
  0x4011973aU, 0x3f8030b23f694c12U, 0x800000003fc9fe97U, 0x80000000c0192564U,
  0x4006f17b400cd854U, 0x80000000U, 0x409bd70880000000U, 0x402d38c340bd8bf3U,
  0xc041f02100000000U, 0xbe6b68f880000000U, 0xbf9cb20c3e7a257bU, 0x800000003dcf4cbdU,
  0x3e719c3500000000U, 0xbf2e4cdc00000000U, 0xbfcd53aebf960be1U, 0x3fb7c7f940763a89U,
  0xbfa9c8f23f62d07eU, 0xc0367c633f1a9b3aU, 0x3fd116cd3fecd584U, 0x0U,
  0x3fca10a6bf1bb196U, 0xc03a1595c026e208U, 0x3e2a6aa0bf30746eU, 0x3e4c28e7bf0ea933U,
  0xbf175957bf190282U, 0xbf33b1e1U, 0xbe74bfcdbe2c3bc2U, 0x4013d8123ec79460U,
  0x800000003fcf3ec9U, 0xbecfd86cU, 0x3f0d6058bf3dc620U, 0x3fb781863f25dfb2U,
  0xc013fb3f3fd1b206U, 0xbfbafc803fdceb34U, 0xc0505d6e3fc25a91U, 0xc008e924c0aa7475U,
  0xc0065390bfb19efcU, 0x3ef5a18a3ec25f98U, 0x3ef721d53f435c8fU, 0x3fd67e43bf903f42U,
  0xbea248ae3dd03cd8U, 0x3eb603193f01c414U, 0xbf0946bb3f556162U, 0xbe9d37d7bd8e0795U,
  0xbe18c3c9be81c3efU, 0xbe9b8a413edc7248U, 0xbe7143ff3ed6eb5cU, 0xbe701062bf07d9edU,
  0xbe2030e8bd85d5a8U, 0xbe85437abeb502f3U, 0x3e3baa8a80000000U, 0xbe3c6c8bbe5a7067U,
  0x800000003e84665cU, 0x3e0bc81e00000000U, 0xbddb01a2bf20f804U, 0x3eb335493f08b713U,
  0xbe31ff1abf1d162dU, 0x3ece63553e381870U, 0x3eae477f3efaaacbU, 0x3e61436a3dcda7bbU,
  0x3dc152e3bf251e53U, 0xbe674a1abe8e19dfU, 0x3f0544f1becb27e5U, 0xbdce9275be41b13eU,
  0xbdfd61fa3e047b07U, 0xbec6b4d4be94cd56U, 0x3ec1cd4e3e855f95U, 0xbe9e1df73d81730eU,
  0x80000000U, 0x3e7cf44d3e9e56f1U, 0x3ed30e7b80000000U, 0x3e9f4afebdf77c71U,
  0x80000000be1c9721U, 0x3ea6f1c13e8e368bU, 0x3d2bf45dbf102180U, 0x800000003d36c8edU,
  0xbe885d733e98de51U, 0x3eadfc693db060d9U, 0x3ddec6bfbf3dda34U, 0x3e822923bec43cfaU,
  0xbf11bbff3d161f62U, 0xbdbc09bfbe3a99b7U, 0x3e694e7d3ec002ccU, 0xbe699aa8U,
  0xbf4804373f44cc14U, 0x3ee65d64be369f6aU, 0xbf2091bfbde4211eU, 0x3d943c4c3f909ed6U,
  0xbf4d91c83f009fc8U, 0x3eabe0c2be7961e7U, 0x3ee24dfc3eb93868U, 0x3ec9f1e13ee4bbe5U,
  0xbf1fd3a0bd9f80a7U, 0xbec11eedbdceba61U, 0x3f000a07beb3c56eU, 0x800000003dadd1dbU,
  0xbea529e93e464b87U, 0xbf1774c03e398441U, 0x3e4234293f145bd1U, 0xbdc4504e3d6a2ad0U,
  0x3dd4869b3e8d02abU, 0x3e190dbfbe00c75aU, 0xbde9233dbea2da28U, 0x3f1a9971bd64ce97U,
  0xbb90f2ebbd5358eeU, 0x3d616b22bd6d67efU, 0x3c3c2800bce3b0c7U, 0xbd420141bcebc076U,
  0xbbc6d3303d36ce64U, 0xbde08bef3d217065U, 0xbcf599f6bcf647ecU, 0xbde052cc3d81ca93U,
  0xbeb8f83400000000U, 0x3efdb21cbf305a61U, 0xbf574339bf2fb000U, 0x3eb79c2d3ea080d6U,
  0x3ea6364780000000U, 0x3ef922aa3f700dfeU, 0xbeb48e89bf4b3630U, 0x3f20da0e3edb6124U,
  0x3ecd35e83ea85c7dU, 0x3dffe6b73ebe3e85U, 0x3e1a8d6300000000U, 0x3eaabd4a3f107c75U,
  0xbeb3e6573e60eeeaU, 0x8000000000000000U, 0x3ea8c215U, 0xbf99506c80000000U,
  0x3ea611d2bf24bc3fU, 0x8000000080000000U, 0xbed0952a00000000U, 0xbf3497553ec5efaeU,
  0xbf246143bfa93e0cU, 0x800000003ee2ab2cU, 0x80000000bf4c39baU, 0xbf12b638bf3e06e7U,
  0x800000003f346f47U, 0xbfefb1a4U, 0x8000000080000000U, 0xbebf9d6abeb18debU,
  0x3ef368093f06cd04U, 0xbe3034883f3034f7U, 0x3e36612fU, 0xbf093d8380000000U,
  0xbf1a13363fee4aa6U, 0x401e52793fc7c49eU, 0x3f423d35U, 0xbf4f3ab800000000U,
  0xbf9bfb1dbf6bf08dU, 0xbf04f61d3f9bb111U, 0x8000000080000000U, 0x0U,
  0x3f8d6e6aU, 0x80000000bf06c28bU, 0xbed5f1f7bec9a093U, 0x80000000bf181ba5U,
  0x80000000U, 0x3fa713c9bfb31f2fU, 0x8000000000000000U, 0x3fbb74edbf1729e9U,
  0xbf3d8c8800000000U, 0xbf423f593eea77c8U, 0x3e96715a00000000U, 0x3ea3f0aaU,
  0xbe59e4593f70de10U, 0xbe51f9dc3ee27daeU, 0xbec4fa43bfc4d017U, 0x3f13db0e80000000U,
  0xbebf0dbc3f041937U, 0x3ed2936b3ee5d06eU, 0x3f3696053f3933e5U, 0xc016a588c033afc5U,
  0x8000000000000000U, 0xbfdddbbf80000000U, 0xbf894da9U, 0xbf873b45bf036992U,
  0xbf1b7425bf00a2b9U, 0xbeb6b050be4968d2U, 0x3ed4d68fbf161ce2U, 0x3ef1cfcf00000000U,
  0x3f4b55b43e85fd35U, 0xbf0b87b3bf042064U, 0xbf13dd20be6a5ff7U, 0xbf1d4439U,
  0xbea0677e3edb7612U, 0x3f28cbfdbf08c690U, 0x3f346fe73fa63115U, 0xbfa99a94bee1f0f0U,
  0x3f16a7b8bd5c4ed2U, 0xbe724cdebed1dbb8U, 0x3f391241bdeb9cceU, 0x3d6067083f89aef6U,
  0xbddf682480000000U, 0xbf01531980000000U, 0xbe7dfbea3e587762U, 0x3ece50873ef663d9U,
  0x800000003deaa15aU, 0x3e13dfef3e0efef8U, 0xbef3f024be93b5f4U, 0x3de2507100000000U,
  0x3d9844bb3e71deadU, 0x3ee14cdb3e160bc1U, 0xbf0ead3ebea3e23dU, 0xbe2aad1fbf102666U,
  0xbe49ca0abec7af69U, 0xbe4c6b0a80000000U, 0x800000003f15de9bU, 0x3ef50f2ebe8ac160U,
  0x3e7a62373e8a3daeU, 0x3d3c09093da0ce77U, 0xbd589073U, 0xbe9b19093d7e2a88U,
  0xbec06d093e6a21d2U, 0x3d57ccb93e0f7f19U, 0x3d497803beafcbf1U, 0xbdca3571beef2d0fU,
  0xbe651bb63e4bb98aU, 0xbe9920583f05300dU, 0x3e8a55b0be3e0fddU, 0xbedd04ceU,
  0x3e9d60063e8cf1e7U, 0x3eb1e663beaee0c6U, 0x3e85844c3efe9b6eU, 0xbf02f3b400000000U,
  0xbe1025443e4e9264U, 0x3d9ab4683ec3a531U, 0x800000003d8d5b29U, 0x3d71ca7b3e10f1f3U,
  0x3e79040f00000000U, 0xbdcbd320be24d363U, 0xbdc56445bda67eacU, 0xbdb0737fbde70a21U,
  0x3e1de5dcbd8970f7U, 0x3de36a13U, 0x3ec9def83d3380adU, 0xbee75ca480000000U,
  0x3e41a4f83e63d602U, 0xbe9bc95c00000000U, 0x3e4a02e2bdbc2e3bU, 0x80000000bed2cf31U,
  0xbeab4e8d3ea2ecc7U, 0xbe218195bda268b7U, 0x3e3da61f3ddb5c57U, 0x3e45777d80000000U,
  0x3e2b0301bec5dcbeU, 0xbe966a67bea02020U, 0x800000003e586202U, 0xbf0ba0aabf14520bU,
  0xbdff04bc3eff094bU, 0x8000000080000000U, 0x3e2287c480000000U, 0x3dee42b93e896b94U,
  0x800000003ed2f7efU, 0xbe7c747a3dedcf59U, 0x3e90b0d03e550da3U, 0xbd671c723e55b9c6U,
  0x3ea617713ed2c2f3U, 0x3db6a7f83e2ea8e7U, 0x3ddfdcf880000000U, 0xbf23de10bd85547aU,
  0xbec2b9fc80000000U, 0x3ee18b443e803deaU, 0x3f3e98a000000000U, 0x3eb7211e3e8dc809U,
  0x3e75b566be234f00U, 0x3db5abd3be652534U, 0xbe704ddcbdfd5dcfU, 0xbe49441d3f0c484cU,
  0x3e8045fb3e87ce13U, 0x3e31668a80000000U, 0xbe16d517be1c3529U, 0x80000000be8dfbd8U,
  0x3d9378d7U, 0x3eb6619b80000000U, 0xbef8733abea488e9U, 0x800000003e0ffcb9U,
  0xbe99f35a3ee6c1e2U, 0xbe3c36b7bef7902eU, 0x3e299756be62753cU, 0xbe1fb50380000000U,
  0xbda90f803ea4e256U, 0x3e98d97c3eba1ce5U, 0x3e0ee6b83eea76fcU, 0x3e822f9abec29a46U,
  0x3ea60f42bea3d752U, 0x3eae29d9U, 0xbe4ac06e3e13b5f4U, 0x3e8c3c3f3e01e78eU,
  0x3e2ed0143e3f1820U, 0xbe9c800dU, 0xbf11e7283eba0d57U, 0x3f18225600000000U,
  0xbe376f1aU, 0x3ec97d1cU, 0x800000003eaf2187U, 0xbd6e93fabea6d73fU,
  0x3ea9c1c6be247ac7U, 0x3efbe271be666b15U, 0x3efa67ef3e04e9adU, 0x3d4f123fU,
  0xbea53f713d7e4e55U, 0xbe17511cbe8aeac3U, 0xbdc48d51bd5423b5U, 0xbe32604880000000U,
  0x3ed41bfbbdc42474U, 0x3e8d9a2ebe8729fbU, 0xbdf10eb480000000U, 0xbe29da85be427945U,
  0xbe9cda033df2711aU, 0xbd731c103dd699baU, 0xbeb4e336bdfcc78aU, 0xbdcc679a3f188f5fU,
  0x3ec4d43f3e5b078dU, 0xbd67a8e33ec05635U, 0xbe30de7bbdbbc879U, 0xbec1751480000000U,
  0xbdf8e2543e280987U, 0x3e215c253ea89ea9U, 0x3dfe55f6bdeb63f7U, 0xbd587e4bbdb901beU,
  0x3dadb162be1dff9eU, 0xbdc42ca8U, 0xbee840da3e65ccdfU, 0x3e06c5adbe2a3cdaU,
  0x3e8212db3d3df961U, 0xbda648953e2d7b78U, 0xbe53321fU, 0xbd2a4977bdb88123U,
  0x3eb2f27e3dcd3856U, 0xbdc6fed1be460ff9U, 0x3e5a1017bddbe094U, 0x3e03f9d7be55d9deU,
  0xbd040641be004264U, 0xbd41c4a3bd6cd5aeU, 0x3e44da273e08b816U, 0x3ce545b4be0b0e2dU,
  0xbda75e3ebe976ff0U, 0xbeaa129fbee13815U, 0x80000000bdb23d60U, 0xbeb0a8db3e8f96d8U,
  0xbea733bd00000000U, 0xbe917b923e10e9e4U, 0xbe815fb23ef0905dU, 0x3ddf672980000000U,
  0x3ee037e1bf16824eU, 0x3dddabebU, 0x3ef67dbbbe83489cU, 0x3ea8b215bdebbb82U,
  0x3e9a50993ea02397U, 0xbdf523663e9f72f9U, 0x800000003e2b1f22U, 0x8000000080000000U,
  0xbf5e257abec56760U, 0x3e846728be361664U, 0x3de8caad3eaa84bbU, 0xbf3587ecbe13e5a9U,
  0xbe085050bf22302eU, 0x3dd2691200000000U, 0x3e54ddbf3e4aafcdU, 0xbe9e998f00000000U,
  0x8000000080000000U, 0x3e3ae8cfbe5c3587U, 0x3e56b6603e9dd531U, 0x3ee5145aU,
  0xbe31c00f3e20d07bU, 0xbe1dc6153eb37a42U, 0x80000000bdae361bU, 0xbea0a334bd2f6d32U,
  0xbe745abeU, 0xbe9761213f1f2ddcU, 0xbdf7ad19be1f4e93U, 0xbef9d0ccU,
  0x3d9fe679bd6782f2U, 0xbe3d62df80000000U, 0xbe1cd61d3e6642fcU, 0xbf1b7b7abe65d25dU,
  0x3e13c1f300000000U, 0x800000003dcc9c65U, 0xbdd933263f1e3018U, 0x8000000000000000U,
  0x3f1329973e569883U, 0x3f33c447bf6f364bU, 0x3ea0763e3dc02673U, 0x3e7b9f40bd98d25fU,
  0x3db3789fbe1a7cbcU, 0xbd13ba80bed4dd53U, 0xbd0d45a1bd851088U, 0xbd298635be698e71U,
  0xbe156b3c3d8b548aU, 0x3db694fd3d9d611dU, 0xbdac3b4ebe0971fdU, 0x800000003e7c9df4U,
  0x3f26357cbeaf67d5U, 0x3e9f76c600000000U, 0xbe8492c9be0dc281U, 0xbed07430be1e443bU,
  0xbd91395bU, 0xbf12a501be80d291U, 0x3ebaef1180000000U, 0x3d76b17e3dd06b6cU,
  0x3e68cdd2bd9a6865U, 0x3e60b217be7210c6U, 0xbe97e1f2be4ee585U, 0xbd97d7b980000000U,
  0xbe2b19e4bdd85fedU, 0xbec627f200000000U, 0x3ebed8acbed6d362U, 0xbeff1f56be43c8faU,
  0xbefbca163e8373a9U, 0xbd22e45200000000U, 0x3e5a9949U, 0xbd3c66c9bddf458cU,
  0xbe643f4cbe9fa729U, 0x3d71569a3e19298fU, 0x3dbfd2093f0a75e8U, 0x3dcdcf79bd55113eU,
  0xbde827223d8dde02U, 0xbec45b693f21ff30U, 0x3de1d1503dd0555fU, 0x3e85d48800000000U,
  0xbe504b31be90bfd1U, 0xbe70d50bbee83ef8U, 0xbf2eb4e5bec944f2U, 0xbe836a013eae898dU,
  0xbe3080523e2c9e2bU, 0xbe9d1ffe3ebd99e8U, 0xbeb9f717beb07177U, 0x3e08b63ebedae098U,
  0x3ea8c08600000000U, 0xbe3e21233e2e869cU, 0x3e0a4c1dbe7eee51U, 0xbe1c39c0beba1ee4U,
  0xbe03431800000000U, 0x3e32cc9a00000000U, 0x3ec96120be78d1e6U, 0xbf13b4f3bde1db40U,
  0xbe19f58ebf2b971aU, 0x800000003e18ef7cU, 0xbe3861e0be7eaf76U, 0x3ed68631be415a32U,
  0x3e91a55400000000U, 0xbeb43dd8U, 0xbde59ae6bd32488eU, 0x3d6da6b7bec1354bU,
  0x3dd9b3aebd512ee3U, 0xbe056f8dbdb57db2U, 0xbe4821223e975b73U, 0x3dd085f1be3ef85aU,
  0x3da254d1bdb541a4U, 0xbdbcf1a6be091740U, 0xbe204847bdc9fb36U, 0xbde3d10f3e1bc821U,
  0xbe71c491bd8c9289U, 0xbe1368d0be168059U, 0xbdc1d3bdbd1fd634U, 0xbc02764bbdc8f443U,
  0x3cb1d9f23eab65d3U, 0xbd4c271abc58b877U, 0xbddff6c43db993c0U, 0x3c072f5e3e15f3adU,
  0xbd800e483e0e23b4U, 0x3ddc28293da1c6f6U, 0x3de606fbbe309b50U, 0x3e05448d3dbd3a75U,
  0x3f01652580000000U, 0x3f3a47623ef5b305U, 0xbed4e63cU, 0xbf3a9a65bf91cb0bU,
  0xbf534d94bee25959U, 0xbe34e076be5a3fe9U, 0xbe20f4c680000000U, 0x8000000080000000U,
  0x3e22e7b5be28c0ddU, 0xbef0ce8e3ed574ffU, 0x3f0f19fdbf80a9c1U, 0xbf0da66d00000000U,
  0xbf87c2b180000000U, 0x3e92061280000000U, 0xbe84fa813ec14dccU, 0x3ea7443b3f82d5b8U,
  0x800000003eed19a4U, 0x3e5e74c100000000U, 0x3f1577243f33f5b1U, 0x3f3e108000000000U,
  0x3ebab324U, 0x3f20cadbbea36b64U, 0x8000000080000000U, 0xbf2acab800000000U,
  0x3ef57f0abecee900U, 0xbf0bc515bf74c6f8U, 0x3ffddddc3f504b93U, 0xbf7166d13f95f354U,
  0x80000000bf8d13b5U, 0x80000000bf518797U, 0x8000000000000000U, 0xbf90c8c93f70cb71U,
  0xbf12ed4bU, 0xbf4d3786bf649eb3U, 0x3e91d65680000000U, 0x3f8e396980000000U,
  0x3ef485f880000000U, 0x80000000be0dd2c6U, 0xbe332a1500000000U, 0xbf32ce9ebe86bbd0U,
  0xbf35e026befc11d0U, 0x3fa8e8d53f545f1aU, 0xbe9ca47300000000U, 0x3ef2df643f35f94fU,
  0xbf1e855d3f848ee2U, 0x3ee36cd9bf2f1982U, 0xbf3accefU, 0x800000003f1dcfc6U,
  0x3fbe3933U, 0x3f1e1bef402aefb1U, 0x3f93b92c3f813eb6U, 0x3fb4106100000000U,
  0xc006187200000000U, 0xbf43bfeebfe9d1a1U, 0xbe81b115U, 0x3f3155fbbee919a6U,
  0x3f560c2cU, 0x3f11ed6780000000U, 0x3f09ef4800000000U, 0x800000003f4ab18aU,
  0xbf78168080000000U, 0x3fb880c8beac5790U, 0xbeb70629U, 0x3ecf8c873fcb041aU,
  0x3f16a40f80000000U, 0xbf926b0d00000000U, 0xbf8c707a3f0655a4U, 0x80000000U,
  0x80000000bed0a778U, 0x800000003f114ec1U, 0xc0120f1c3f52f4eaU, 0x80000000bf8a4833U,
  0x800000003f5064d1U, 0x8000000000000000U, 0xbfb2b4e0bf1bf0c1U, 0x8000000000000000U,
  0xbe83bbc6U, 0x3f4f83153f038a68U, 0xbeff19c380000000U, 0x80000000bf402c28U,
  0x80000000bef75bb5U, 0x8000000080000000U, 0x0U, 0x3ef7d1363f5b3e62U,
  0x3e5ee51b00000000U, 0x80000000U, 0xbea49e77U, 0x3edca6123f791ca3U,
  0xbe88c7e33ef82629U, 0xbf0cee3b00000000U, 0x3f628316be6a4201U, 0x3f599213U,
  0x3eb5d1c080000000U, 0x3f336da0beb0181cU, 0x8000000080000000U, 0xbf83737600000000U,
  0xbf43c93880000000U, 0x80000000U, 0xbfaaad37bf7aa81fU, 0xbe8149e53ea3b620U,
  0xbee905ae3eca7dc6U, 0xbf3b0c02be4e3991U, 0x3e611d9b00000000U, 0xbea3679aU,
  0x80000000U, 0xbf89113ebf5ecd74U, 0x8000000080000000U, 0xbeb5dd8bU,
  0x3efb216cbf192de2U, 0xbf5c609e3f1afe54U, 0x3f03ff433fcf8e76U, 0xbfe0628100000000U,
  0xbf0e2f48bf495b8fU, 0x8000000080000000U, 0xbf43a67cbee9a4e6U, 0x800000003e6c86bdU,
  0xbeeac3d8beed60c1U, 0x80000000bf516f59U, 0x3fbc751880000000U, 0x3eeef2a1U,
  0x8000000080000000U, 0x3f65f175bf08f401U, 0x800000003ef3afb2U, 0xbee974423f826c60U,
  0x0U, 0x3f4a2dbabf0a2969U, 0x800000003ecdc0dcU, 0xbf88ae04bf54af0aU,
  0xbea2406dbe6ba25bU, 0xbeb027e2bf67a37dU, 0x80000000be5920f6U, 0xbf606d2380000000U,
  0xbec6ceb2bf840f2cU, 0xbf90264600000000U, 0x3ee02d55bf971c7aU, 0xbf4d637a00000000U,
  0x80000000U, 0xbeba0598beb0580cU, 0xbf4c14d9U, 0xbef7043180000000U,
  0xbea60ef000000000U, 0xbf5ab3c080000000U, 0xbeb2e63abf803a14U, 0xbf3ad08880000000U,
  0x3f3dac9fbc68d412U, 0xbf4279d13f0cbecaU, 0x3d4b3964bf38b954U, 0x3f3529163ede1480U,
  0xbf21d22c3ec21644U, 0xbebb7f3ebeede384U, 0xbe97402bbf0c936eU, 0xbd2952f3bca23c78U,
  0x3e9a43053f2d1559U, 0xbed32023bf1062a0U, 0x3f5b2befbf6872f3U, 0x3f38d19b3ebdfc48U,
  0x3f4cdd963e9704b4U, 0xbf537bb2be340518U, 0x3f8fe7f83f5882a4U, 0x3fbed9173f47dc19U,
  0x3cf9fbbcbe594c6bU, 0x3e2ea3d280000000U, 0x3de84c2cbd8b49c5U, 0x800000003e998ae0U,
  0xbebd3ea1be192d86U, 0xbd3c6d13be85b550U, 0x80000000bd8b4371U, 0xbd8573d3be1f9ae9U,
  0xbe064fd3U, 0x800000003d532720U, 0x3e27293500000000U, 0xbd883d1d80000000U,
  0xbe611e22be6f886cU, 0xbdd5c38600000000U, 0x3e799984beb48338U, 0xbde590a23e807d21U,
  0xbd4972c700000000U, 0xbe4856ba00000000U, 0x3e85921d00000000U, 0x3e95839b00000000U,
  0xbef8b9beU, 0x80000000bdac339cU, 0xbdf13de4bd9eab2bU, 0x3e8e6b973dc138b0U,
  0xbe8db4bfbdbb2a4aU, 0x3d9e1d0dbe75d702U, 0x3e641d85be1f62cdU, 0xbe014cb3be977651U,
  0x3e858fcabd56befbU, 0xbe18b9b1U, 0x3d50f28d3e43f799U, 0xbed1f8f3bef034abU,
  0xbe8cc4073dc3bff1U, 0x3e54f26cbdb73e4bU, 0x3dfb8ce1U, 0x3e52eaf1bda9dba3U,
  0xbd4028c5U, 0x3d72b6c83dbc401cU, 0xbe978febU, 0x3de3a0f400000000U,
  0xbd8c3eacbe022d38U, 0x8000000080000000U, 0x3e4aae57be950bb3U, 0xbe2c1a693e8c0fdbU,
  0xbe9099283e5c474cU, 0x3e2b1364U, 0x3eb7d38b3e2b267aU, 0x3dd30aecbd723463U,
  0x3d5653a63d92977bU, 0x80000000bd737b69U, 0xbdad0980U, 0xbdd33ebd00000000U,
  0x3da7b7f2beeb68c1U, 0x3d480ff100000000U, 0xbf007f31be21ef01U, 0xbe8372b180000000U,
  0x3e39f57cbe8576aeU, 0x800000003e24b2ebU, 0xbe2aebe2bddd94b9U, 0x3dcdf64400000000U,
  0x3e2d11c4be18338dU, 0xbe4433863e86e678U, 0xbe8207eb3e11a27eU, 0xbe751061be18ad1eU,
  0xbd9117ccbe011d41U, 0x80000000bd04931cU, 0xbd9569a7bdb88581U, 0x3cdca915bd97057bU,
  0xbd272e843db12638U, 0x3d8b99563e0eddcfU, 0xbe43fb4c80000000U, 0x3e88acb2be4743a0U,
  0x3e5cc855bd900679U, 0xbd7bbb2abdca26c6U, 0x3df2e737bd07ab2fU, 0x3e487a4d80000000U,
  0x3cfbb7eebe308079U, 0x3d1816ce3ddc0ef9U, 0xbcb8e242bd159c84U, 0x3d4031b33dbd6b33U,
  0xbe6c027cbdc9c003U, 0xbdc75f9c3e25c5dfU, 0x3e4bbe99bd600856U, 0xbe07f611be6d97e8U,
  0x3df9813e3dbae839U, 0xbe835a813e1c96fdU, 0x3df7de6000000000U, 0x3e52aba23e396b85U,
  0x3f1a1042be10cd0fU, 0xbe5a9f3cbd962959U, 0x3e4e08253e2758d7U, 0xbeee9533be03b012U,
  0xbdf381623db38115U, 0x80000000bdd421b6U, 0x80000000bdbcff3cU, 0xbe49282c3deb4754U,
  0x8000000080000000U, 0xbda5c2cdbebefa0cU, 0xbe6da5bfbe383d39U, 0x3dc84b6cU,
  0x3ebad9eebe03b959U, 0x3e5d740d3e0484b9U, 0x800000003e5287d1U, 0xbea7295cU,
  0x0U, 0xbed53679bec9f93cU, 0x3ec131f8be0bdaaeU, 0x3e67f12080000000U,
  0x80000000be9504d0U, 0x800000003eb52386U, 0x3e4d3b08be3af54fU, 0xbe5a2151be86c81fU,
  0xbe26bba9be8e6b11U, 0x3dd63d17bdf74384U, 0x3ea417023eaab224U, 0x3eecde343dc49a22U,
  0xbe67552eU, 0xbe9cc8f53f18237cU, 0x3e3422a5U, 0xbeef69203f0f3e44U,
  0x3de65b47be14b88dU, 0x3eb8f97cbd961984U, 0xbe2f21c33e9ac104U, 0xbe8e3ee33e852f29U,
  0x3e6f412800000000U, 0xbe5f703680000000U, 0x3ea552d4U, 0x3e2f88183e538452U,
  0x3d3802ea80000000U, 0xbd9bc07ebd95ff49U, 0xbd5546a43d9b6eb6U, 0x3d330ffcbe2e0fbdU,
  0x3d48de6abea1e627U, 0xbe17a05980000000U, 0xbd65f1adbdcd9f7cU, 0x3e285d503d5496abU,
  0x3e6d7c26be76a937U, 0x80000000be7eb821U, 0x3d51d1ccbdfe9eeaU, 0x3db9a9213d239dffU,
  0xbd886edbbe33b325U, 0x3e6da81680000000U, 0xbe0e424c3decb0a3U, 0x3df79c663d02051bU,
  0x3e71aa003e1d2880U, 0xbe315a1b3e0840feU, 0x80000000be6e23d0U, 0x3d45bd3e3e04959cU,
  0xbd20217c3d8f64b0U, 0xbd25fdb7be5f5243U, 0xbe5bf0743d81f5ebU, 0x3e97451fbe18c3feU,
  0x3e617fe1be447b91U, 0xbd8a98213dc5d536U, 0xbde869773d4534c8U, 0x0U,
  0xbe7370b300000000U, 0x3d69107abd4a5baeU, 0xbd37c7863e03bf93U, 0xbe0d52193e1a0153U,
  0xbe2dd8063e89e91bU, 0xbebc14453dd81e72U, 0x3e2bfd773e7f2d0cU, 0xbdb9009d80000000U,
  0x80000000bd1463ddU, 0xbe7ec74f3e7850e5U, 0x8000000080000000U, 0x3da22d9abdbddb92U,
  0xbe5224b4U, 0xbe3a88fe3e88fc40U, 0xbe60eb0a3d252fe0U, 0x3e80a3543d38d934U,
  0x3de9cc8f00000000U, 0xbdc08652U, 0x3e1ace07U, 0xbde6eb6cbd8f882bU,
  0x3d955c4f3e179de9U, 0x3da1a18a3e9fd882U, 0x3da1655d80000000U, 0xbea23f2f00000000U,
  0xbdc82f823e116555U, 0xbd7fd088be35562eU, 0xbe83d506bd974249U, 0x3e96ff6c00000000U,
  0x3e851ee6be502f49U, 0x3ec6627f3dfdc82fU, 0x80000000be4faa3fU, 0xbe3413b63dd42687U,
  0xbe319581be5e6246U, 0x3e46f52180000000U, 0x3d8fbad500000000U, 0x3e4600a6bde5dc31U,
  0x80000000be505a49U, 0x3e8fd33d3e630ce1U, 0x3d92ac38be808d18U, 0x80000000U,
  0xbe11db76bdba1d52U, 0x3ef26d3680000000U, 0xbe5e85aabd9207e9U, 0xbd88495e3e3d1f56U,
  0xbe033d5200000000U, 0xbec3a644U, 0xbe5b50ce3d86c34cU, 0x80000000beac4c96U,
  0xbeae2efcbe3df24dU, 0x3d80a9fdbdabfb8fU, 0xbdd1739bU, 0x3e163e18beaa7126U,
  0xbda87ba4bd2762f5U, 0xbd757e453d1f97e9U, 0xbd347697be77074aU, 0xbd02a30800000000U,
  0xbd928d2f3d065cd2U, 0xbe2e5f9d3d0b0028U, 0xbd7c5ed43e8f8391U, 0xbd5139fe3d7e462fU,
  0xbe95ecebU, 0x3d88e0a100000000U, 0x3e4b94c0be01bd48U, 0xbd7cacd0be03f9adU,
  0xbea29b3e3de8e9a1U, 0x3dd9df59U, 0x3ddf8316bd11237fU, 0xbdb62a033e3bb135U,
  0x3e752df23e48fdfdU, 0xbe3a487580000000U, 0x800000003e39041bU, 0x0U,
  0x80000000be05aae4U, 0x3eb16dbfbd828f67U, 0x3e81775eU, 0x3de1267f3d41f042U,
  0xbe4db1c2bdd26434U, 0xbdf0a19fbe1fb144U, 0x800000003d916eaeU, 0xbde326443eecc27fU,
  0xbe20e6fc00000000U, 0x3dfd7bbeU, 0xbe002f29bd3091d4U, 0x3dc3445080000000U,
  0x3cd2fd0f00000000U, 0x800000003e473f1eU, 0xbdbbc9d5U, 0x3da537abbdce0ca9U,
  0x80000000bd99dbb6U, 0xbe6696b13d3bd64aU, 0x3e5f5e363ddcb4e4U, 0xbd8239323cec5a80U,
  0xbd974f97U, 0x3e155e55bdbd3695U, 0x3d7ee6ef3d8f8ec7U, 0x3d8706d0bd96502dU,
  0x3ea864913dd98102U, 0x8000000000000000U, 0xbda3b3e13e21edc8U, 0x800000003d15487eU,
  0xbd6ee883bd92ea7fU, 0x3dabd8efbe859516U, 0xbda4d4253dbf39cfU, 0x3e0e576b3cee5421U,
  0x3d0c9f2fbdc3f265U, 0xbda3974abcf59a1fU, 0xbd30d91d3e9a3f94U, 0x3dec20993d2ab0faU,
  0xbd968150U, 0xbcde368d00000000U, 0x3e2af1483e66f7cbU, 0xbe5fde2cbd7c05c9U,
  0x3cd7188ebda51c5dU, 0xbd6f257280000000U, 0xbd942d42bd90d319U, 0xbdd8763a3dca676bU,
  0x3e814c1c80000000U, 0xbdfc902a00000000U, 0xbf0752913e0c6de8U, 0xbd7a29213e0603d0U,
  0xbe6a3cd480000000U, 0xbe560c6ebe22d718U, 0xbe87d5673db01a57U, 0xbdd12b4ebe0cb76bU,
  0xbe5a531b00000000U, 0x3e23c29180000000U, 0xbe4e7f80U, 0x3e7d1ee7bd466e52U,
  0xbe5a1e8dbe3860d9U, 0x3d926ccfbe1433f4U, 0x80000000bd48c940U, 0x3e11a44dbd703d66U,
  0x3d5926f9be53354fU, 0x3ed442a2be5c4c3fU, 0x3d730d303e5c9c1eU, 0x3dec264abd62e0d4U,
  0x3e7455c480000000U, 0xbe8bfab23e26733fU, 0x3ebbdf5380000000U, 0x3d9ec50bbe009297U,
  0x3e5d3ec1bd4b67c5U, 0x3e69faf3U, 0xbd97125c3dd63f33U, 0x3e721c5980000000U,
  0xbeb0bf733e1d0042U, 0x3e1046f7beaa8206U, 0x3ec807f63e08d0e8U, 0xbe0054c700000000U,
  0x80000000bdc1f1c6U, 0xbd63ecb53e0404aaU, 0x3e191d8600000000U, 0xbe5c44c1be10aabfU,
  0x3da9cd4ebe4771bcU, 0xbe990ccf3e9e2dcdU, 0xbe501d003d8fab13U, 0x3e08c5763d444922U,
  0xbe152ddcbda1680dU, 0xbe2596f7be125c78U, 0x3d26e62a3e07344bU, 0x3e8634b6be86895eU,
  0xbe10e7afbd116267U, 0x3d90320d3e29d644U, 0x3de3dd4e3d3c56e8U, 0x3d949798U,
  0xbdbba709U, 0x3e59989400000000U, 0xbdf0d2603dba5f1bU, 0x3e5237a33e93173bU,
  0xbe152a4a3d9fce2cU, 0x3e88088800000000U, 0x80000000be6d5431U, 0x3e0a0391be9f5267U,
  0xbe0e4f0a3e1425efU, 0xbd51141a3d41a9cbU, 0xbd8757dabd85c7f5U, 0xbd011fd9U,
  0x3d945efd3e40b893U, 0x3e30223bbd51886fU, 0x3d8338743e606eedU, 0xbe0422c33e51bdc1U,
  0xbdb98c8000000000U, 0x3e03c8dcU, 0x3d5343a03def92b1U, 0xbd08395fbd43b541U,
  0x3e05e7e5be383966U, 0xbe293eb2bd65d537U, 0xbe0160a6U, 0xbe51d4213d366e96U,
  0x3d7958373e0bb600U, 0xbd4e4d2abdb90e79U, 0x3dc73e7a3db3df77U, 0xbd3929eb3d010e1aU,
  0xbdf35bac3ea4ddbaU, 0x80000000be9d07b5U, 0x3e4e73b6bd90d7c7U, 0x3e69f62200000000U,
  0x0U, 0xbd9f343000000000U, 0xbdc7b381be63155dU, 0x3e3722f700000000U,
  0xbdabbe94be377d8cU, 0xbe189ee23e5563ebU, 0x3d3727cf3dc0b57cU, 0x800000003e15101fU,
  0x3dda92fc3e86cc56U, 0x3d2af70cbe18270bU, 0x3eea3eab3e66e758U, 0x3dd64b8080000000U,
  0xbeaa2c9280000000U, 0xbdf1d6b93d946dc3U, 0xbe660927be14c202U, 0x3d3958cdbdccd353U,
  0x80000000bde08adeU, 0xbe301a40be228775U, 0x3d96dd583e3ad570U, 0x3cf7bff6bdc8e3f0U,
  0xbd8951d5bd4ce7d1U, 0xbe82b4543e42c444U, 0x3e5ac68dbd9cc39aU, 0xbdc1c9f5bd098fccU,
  0x800000003d98a62eU, 0xbe30dbde3dce40c0U, 0xbd6c459e00000000U, 0xbe2857d8bde35fbaU,
  0x3d22b76d00000000U, 0x3e2a4d0cbe1d33d8U, 0x3e027df900000000U, 0x3e12d33c3d5b6f11U,
  0x3e4d91623e67a34dU, 0xbe9d652180000000U, 0x3e269944be6263ebU, 0x800000003e8b633bU,
  0x3de946233da3d7b4U, 0x3ecdd4a3U, 0x3ea4f6aaU, 0x80000000beaf6051U,
  0x3ee7c63e3dd710c1U, 0xbe023a2980000000U, 0xbe3aec673e51a296U, 0xbde3ac2800000000U,
  0xbdbe1c92be416ce6U, 0xbe53b775bdef364bU, 0x800000003de324faU, 0xbe9852373df023a9U,
  0x3e6fc4363d4fc6f2U, 0x3d3225ee00000000U, 0x3da4ba8380000000U, 0x3d2ac56c3d99f39bU,
  0x3d0e2e89be07f7fcU, 0xbe74905400000000U, 0xbe443e78U, 0x3e678734bdb6957dU,
  0xbd125c3e3e50bf2aU, 0x3dce1623be205ed2U, 0x3e2373adbd687c91U, 0xbda729e83deb6d3eU,
  0x3e4fdff3be51e5bfU, 0xbdde6292U, 0x3d3e94a23e64cca1U, 0x3d98f72400000000U,
  0x3d7db0123e878591U, 0x3d4f0b57bd72bd36U, 0xbe403dd33e066aa8U, 0x3ec3156d00000000U,
  0xbe463f57be5d07f5U, 0xbe41070ebe80cbf9U, 0x3d660e63be37012fU, 0xbe3ecc093d71737aU,
  0x3d6c322500000000U, 0x3ddd20ea80000000U, 0x3e3d1e2b80000000U, 0x800000003e6ab9f4U,
  0xbde5380eU, 0xbe899189be0db4abU, 0x3df88ed43e0cc0e3U, 0x8000000080000000U,
  0x3d2a4c23be43bd80U, 0x3d96349bbd57feb0U, 0xbe838fb580000000U, 0x3e6ccc75be167b4cU,
  0x3e3a92f13ea98348U, 0xbe1d261abd2c794dU, 0x3df5e1773e3e8819U, 0xbe959a44be88d300U,
  0x3e5c907abd17760eU, 0xbe501cc63df7bb6dU, 0x3e2d1e693d8c95cdU, 0x3e1c83eeU,
  0x3e259d5abe3992cfU, 0xbe8d6380bdfffed3U, 0x3e70d98dbe73bbcbU, 0x3e14e5c13e00f6edU,
  0x80000000bde66649U, 0x3eb6129bbdfa5ac5U, 0x3e83a90c3e5f8b13U, 0xbe4bc5143e8ed5f5U,
  0x3e15c9883dc59ca9U, 0x3e03caa33e7366feU, 0x3e6486043e1f0d00U, 0x3e6d68123e2b4c0eU,
  0xbe6e054cbe094e4aU, 0xbec2a234be752b63U, 0x3d8d4726bdad585dU, 0xbddeb8abU,
  0x80000000U, 0xbd710ee9bd88c3ceU, 0x3da565b93d50cab9U, 0xbdcf16413d9f1f7bU,
  0x3d2accac00000000U, 0x8000000080000000U, 0x3e89e66c00000000U, 0x3e28af9eU,
  0x3df105933e8373c4U, 0x3e1de092be721044U, 0xbe6cc59180000000U, 0xbe25b4323e1af79bU,
  0xbea126d73d9c7275U, 0x3de82552bd3a34d6U, 0xbde00ea1U, 0x3e8d6ee000000000U,
  0xbe1516f33e27a101U, 0x3e20c187be38b9abU, 0xbe3635d9be30e111U, 0x3d89b331U,
  0x3e3f288ebe075d1bU, 0x3d3d0d9d00000000U, 0xbdf687bbbd98f9d6U, 0x3e170f7cbe92df4eU,
  0x3dd7468bbd360f6cU, 0x0U, 0xbe17969cbeae045fU, 0xbe105bbd3d13c899U,
  0xbd0ae0d43dbdd78fU, 0x3d98e4cdU, 0x3e80ea3cbde6d342U, 0x3e7d7482beb20116U,
  0xbd0fb08a00000000U, 0x3e48a0d03e13140dU, 0xbde7668fbe8b99e1U, 0x80000000beb17be9U,
  0xbe0beea6bd467eddU, 0xbe6dc092be745c00U, 0xbda592243e4284e8U, 0xbd4d12f3be90da9cU,
  0xbd94b7e0be027176U, 0x3d70c6eb3e7a29bcU, 0x3e68242280000000U, 0x3d2eecdd3e820da0U,
  0x3d5739d8U, 0x3d918a673e9f8523U, 0x3e35b344U, 0x800000003e654182U,
  0x3dd59241U, 0xbe989a623dbd2941U, 0x80000000U, 0x3e1d2d5c3e0829dbU,
  0x3da11d2cU, 0xbe059dd280000000U, 0x3cf9d241bdcfb729U, 0x3d443d233d7e2034U,
  0x3d1b07e6bd06b318U, 0xbe74aea03e8ef7b4U, 0xbe0841d13dc4e89aU, 0xbde2381d80000000U,
  0xbdeed0cbbd935b1bU, 0x3d846fef80000000U, 0xbd260a8d80000000U, 0xbe7ec848bda095e4U,
  0xbd580ab200000000U, 0xbe035754bdb5a535U, 0xbe0bbf723e83ec34U, 0xbd359d8c00000000U,
  0x3db8c1613e11a41aU, 0x80000000be3c8a40U, 0x80000000U, 0xbe0d733500000000U,
  0x3e64f155bdbabcaeU, 0xbe224a413e4d12d3U, 0x3e6657a9bd57dea7U, 0xbe7e82e580000000U,
  0xbe340660be921cb6U, 0x3e00b022U, 0x3d4e1a7f3d34d476U, 0xbe7ace143e9f05e4U,
  0x3d677faabd0e97fdU, 0x3ea5b306bdc20ce0U, 0x3e152d09bdc33599U, 0x3d9efe2e3e792613U,
  0xbe2e575e3d8c66a3U, 0xbe4f8cfb3d3b84f1U, 0xbd4d99ad80000000U, 0x3e00f839bd3eae74U,
  0xbd9faef63e4014daU, 0xbea70bab3e9393c0U, 0xbe5a14ca3df9af70U, 0xbdd6d49700000000U,
  0x3e20365ebe2f6dbfU, 0xbdfbeac23e459769U, 0x3e64017a00000000U, 0x3d38ef0d3e143fbcU,
  0x3e3255ef80000000U, 0xbe3213d0be84a3c4U, 0x3de1f8e2be0bbe0eU, 0xbd92ee273da22308U,
  0x3e7320c43dc07ea7U, 0xbe220984be84251aU, 0x3d87744380000000U, 0x3dc3f95780000000U,
  0xbdac1d50be5ae250U, 0xbdb76dfd3e03c9b3U, 0x3e16891f3e37a155U, 0xbddfc84ebd6bd180U,
  0x3e7a87e73e4ea2ebU, 0xbe424f2400000000U, 0xbe237ace3d1cca56U, 0x800000003dd288b7U,
  0xbd17a63c3e6e406eU, 0xbe9eeee7U, 0x80000000U, 0xbd14926abdf758ddU,
  0x3e6f5de980000000U, 0xbe08038dU, 0xbe47cdca3e5d74baU, 0xbe2fc0d43e10bdb4U,
  0x80000000be9faf4fU, 0x3d7944d1bd04dc65U, 0x3db0d4d23d9830baU, 0x800000003de5e800U,
  0x3da7c7bf00000000U, 0xbe7ade7080000000U, 0x3da6718bbe1251e9U, 0x3d47518e3db07d74U,
  0xbe17553bbe99524aU, 0x3e0e427000000000U, 0x3e2d07a1be51eaefU, 0xbec66cbe3d896d08U,
  0xbe7ab5543dc7a4afU, 0xbd2e88bb00000000U, 0x3e293ae03edfc036U, 0x3e51f4213ea8b8d7U,
  0xbd74b07ebedf7b0dU, 0x800000003eb8b4a0U, 0x3db2c7393e50ce25U, 0x800000003e6a540fU,
  0xbe36ac05bd8a1e38U, 0x3db5a05d00000000U, 0x800000003e03b976U, 0x3e04d5113e5eaba4U,
  0x3de4b0bb3d99b41aU, 0x3e2a003b00000000U, 0xbe1b79c4U, 0x3e1fcf85bd94f637U,
  0x3e2711ba80000000U, 0xbea74e0f80000000U, 0x3d93fa4600000000U, 0x3e46961d00000000U,
  0x800000003e510c58U, 0xbe7ce0c93ebe2f6bU, 0x800000003dc0f9a3U, 0x3e8df8fd3e8fb9dfU,
  0x8000000000000000U, 0x3d4a1d4f3e0a4403U, 0x3e5fa8813db5d617U, 0xbe3b8f253e2b9a6fU,
  0x3ed0ba6200000000U, 0xbd66889f3e04f5a4U, 0xbd79f1c9bd38e61dU, 0x3e97637b80000000U,
  0x3ddb9cac80000000U, 0x3d42082480000000U, 0x80000000bdab7e26U, 0xbdd00a90be9d4a68U,
  0x800000003e2bf048U, 0xbe8b2e15be7bce55U, 0x8000000000000000U, 0xbe7f251c3db518d7U,
  0xbe0bd299U, 0x3da87f25be51b4c4U, 0xbebae9c4bd543bb3U, 0x3e9b16c300000000U,
  0x3d9d7fe1be585fc7U, 0xbecf4c8980000000U, 0x8000000080000000U, 0xbe4ca4393e8687feU,
  0xbd10b179bd8875f9U, 0xbe4f238fbd1fa10dU, 0xbe26287780000000U, 0x3e8ac59180000000U,
  0x3e00dd42U, 0x3da00c663d461dcaU, 0x3e0a7f85bd754baeU, 0xbe20700dbd31bad8U,
  0x3db3f581U, 0xbd6ae36abe58e21eU, 0x3d466e10beaee000U, 0x80000000U,
  0x3db46b9f80000000U, 0x800000003d040d41U, 0x3e15644dbd97eb70U, 0x3e0924a580000000U,
  0x3e1872b53e1858fbU, 0x3d90bb483de923d3U, 0x3e9b6e2abdbfe9a3U, 0xbe029bcebe2f5d84U,
  0x3d996cdb3e6afb05U, 0xbe15c6a5be448765U, 0x3eb1bb39be1d107cU, 0x3d2fe0cabe1dd582U,
  0xbe4d57c9be35687aU, 0x3d84d0eebec2da5aU, 0x3daaaf4bbd407cd7U, 0x3e0489223d8258d7U,
  0x3d9dfac73d8a6c02U, 0x3dd5faba00000000U, 0x3e34e99bbe8bd122U, 0x3d47fb933dfe3ef2U,
  0xbda377043dd3ffaaU, 0xbf19d65fbe88a7c7U, 0xbdc956acbdf2e5cbU, 0xbd5ab980be4c8eeaU,
  0x3e66ec993d6d7c6bU, 0x3d90ca71U, 0x80000000be251035U, 0x3e37827e3e9397cdU,
  0xbe46aa7fbde193aeU, 0x80000000U, 0x3dd452143e146942U, 0xbe2c06ea3dbadd83U,
  0x3e7ff9193d803407U, 0xbe94e0a43eab8762U, 0xbe966bb080000000U, 0xbe9858053e012620U,
  0xbdef473a3e3d7190U, 0xbdeb49383eb10fb0U, 0xbd2cee5bbd768ce8U, 0x3dbe839f3ea8bd28U,
  0xbdf0324700000000U, 0xbe21c5f300000000U, 0xbdb60c20be1b2733U, 0x3e0b399ebdc27007U,
  0x800000003e20600dU, 0xbe33cbf1bd1a88d3U, 0x3da4e444be0b75f7U, 0x3e864840bd9f0122U,
  0x3d9369e1bdd91ed1U, 0x3dc578aa00000000U, 0x800000003e56cc04U, 0x800000003dbff5cdU,
  0xbea2c2b5be379f43U, 0x3ed2de983e1a1356U, 0x8000000080000000U, 0xbd9a51ec3e8b10c1U,
  0x3ea4c88080000000U, 0xbd89e962becf9760U, 0x3e2798d400000000U, 0x3debeaee3e0ae422U,
  0x3da9ec583e2bfc93U, 0xbea110e1bd34a044U, 0x3e15cd473d939203U, 0x3e8a2b39U,
  0x3dd30603U, 0xbdc40c2fbd88e78cU, 0xbe1500383e27ce06U, 0x3dd10fb6bdcc5f41U,
  0xbdbcf0adU, 0x3e29836bbcf68524U, 0xbd5770273e4d4818U, 0x3d71565abe56be79U,
  0xbd45ec17U, 0x3d6b8f0b3da0a447U, 0x3dc8a245be53d8f8U, 0x3e94da733eae051aU,
  0xbdb0cfd6be3aac46U, 0x3d1bdc9600000000U, 0xbe925b543e59a87dU, 0xbd664c9cbd5b04f0U,
  0xbeaf39e8bd9b76dbU, 0x80000000bdae8d9aU, 0x80000000bd7e9532U, 0xbdf113233d546a4eU,
  0x3e3570d23e256d3aU, 0xbe0c3a5abe69d261U, 0x3e750d943e1bbcd1U, 0xbd8793c5be7121c0U,
  0x3dd3e82fbd9834c5U, 0x80000000bdcebc5aU, 0x3e14736c00000000U, 0x3dc0ef103e4999c3U,
  0x3de255783eb32beaU, 0xbd39592fbdbc4df5U, 0xbdaf18a7becee18bU, 0x3e224fe33ea20c58U,
  0x3e0ebb033d65bf2eU, 0x3e29df94bd56bfa3U, 0xbe8c414bU, 0xbe52199e80000000U,
  0xbe3e2697bec32c9aU, 0xbd5f5f3fU, 0xbe73e67f3dc76d1cU, 0x3d934418bd9d2137U,
  0xbdca7a51be7bcca0U, 0x3db27a74bdb67b85U, 0xbd87f389bd4bcc67U, 0xbdb9f7173e4821a7U,
  0x3e0ab6d380000000U, 0x3e0014e5be91260dU, 0xbe4df805be75e925U, 0x3db4808880000000U,
  0xbe607c24bdb86372U, 0x3e149da53e65165eU, 0x800000003e3401a6U, 0x3e03059bbe1d4d31U,
  0x3cf53208bcccaaf8U, 0x3be49ddfbd2cc2f7U, 0x3d7fe716be3289f7U, 0x3de3c32abdaf8f35U,
  0xbe55ab34bda9d58fU, 0xbda7055fbdb47777U, 0x3e34dfb4bcdf144bU, 0xbe886d8dbe1fcddaU,
  0x3d8dc7633e061c3dU, 0xbdbf61033de781a0U, 0xbe11830fbe5e1ec1U, 0xbe8c0fa3be0877c6U,
  0x3e07ca883cd0c5d4U, 0xbd217d91bc0a8d2cU, 0xbd0f9a26bd1cf124U, 0xbe641754bdf18cc2U,
  0x3be08cd0be88914dU, 0xbe0b5f4bbd4afeebU, 0x3d6cde5abde4061bU, 0xbdb9eaa5be179accU,
  0xbd7b7cbcbdbba968U, 0xbd59f0ebbc5e4ddbU, 0x3d02e428bd6a66aaU, 0x3da8549d3d3b95a9U,
  0xbf35ff2180000000U, 0x8000000000000000U, 0xbf32f2eb80000000U, 0xbf35d1eebf06892cU,
  0xbee7fca980000000U, 0x80000000be906d57U, 0x80000000bf081e12U, 0xbf1b613bbee382f5U,
  0x80000000bec4a8c9U, 0xbf2af9f500000000U, 0xbf79cd29bf106bfcU, 0x80000000bf8223e8U,
  0x80000000be952618U, 0x3e936fcf00000000U, 0x3e24c1d9be76bc1eU, 0x3e9bd8c33ed76b15U,
  0x800000003f0d9960U, 0x0U, 0x3f38c3dd3f907d3eU, 0x3faaae74U,
  0x3f97975a3f76d2c6U, 0x3f2f68993fc0e5e0U, 0x3e9aef813f864178U, 0x3ebeb48480000000U,
  0x80000000bea4478cU, 0xbf187f2880000000U, 0xbf309fd7bf012005U, 0x3ed03b3380000000U,
  0x8000000000000000U, 0x3f0d660680000000U, 0x3f352b893f0fcd8bU, 0x800000003efd8461U,
  0xbe17214880000000U, 0x3ea09b433e4d0082U, 0x3e30fb963e3d43c9U, 0x3eb99bdf3edda2bdU,
  0xbea6b7dcbf18e397U, 0x3eef81e2be8c6fd4U, 0x3f0aef6c00000000U, 0x3ee0cdde80000000U,
  0x3f7c40f33f1fd328U, 0x3f9ee17700000000U, 0x800000003f92aea1U, 0x3fd13fb43fa9cf5dU,
  0x3f8e0b173f825d2bU, 0x8000000000000000U, 0x3f1381bf80000000U, 0x8000000080000000U,
  0x3e829c833fc2f607U, 0x0U, 0xbef3562d3ec9147dU, 0xbf28849fbf7d7649U,
  0xbeb4485fbf6848f7U, 0xbf38b86abebaffa5U, 0x8000000080000000U, 0xbf59e05a80000000U,
  0xbef6f972bf113eceU, 0x80000000U, 0xbf027093beaffdbbU, 0xbf335ec080000000U,
  0x3f0cea0d00000000U, 0x3eb0414a00000000U, 0x3f98c3f1U, 0xbed8c797U,
  0x3f65d5e680000000U, 0x3f7035c100000000U, 0x3ea403c300000000U, 0xbffd06d580000000U,
  0xbff49da4bfb14dd4U, 0xbf8cda4bbfd89346U, 0xc00246ba80000000U, 0x80000000bf9f6f68U,
  0xbe91da9700000000U, 0xbea29f4dU, 0xbee092f380000000U, 0x8000000000000000U,
  0xbe739aa2bf947e9bU, 0x80000000bf51f8a3U, 0x3e86175a3f25e702U, 0xbea317e400000000U,
  0x0U, 0xbec454ac00000000U, 0x3f20030480000000U, 0x3ec2d9d83ee035f7U,
  0xbea676b1U, 0xbf2d628ebeb9f81cU, 0x8000000080000000U, 0xbedc10a880000000U,
  0xbf38fdd0bec5bc03U, 0xbf84a988bf1e7aedU, 0x8000000080000000U, 0xbf52ccc4bfa63df6U,
  0xbf9131bfbf9f7bc7U, 0xbf8845ecbf8e658bU, 0xbf912e8bbfe6e68dU, 0xbf62a8a7bf936c8fU,
  0x8000000000000000U, 0xbf01ea2c80000000U, 0xbfa246aebf6233a3U, 0x3f0333fbU,
  0x3f7bdecb00000000U, 0x0U, 0x3efaff183f89aa73U, 0x3f617661U,
  0x3f643ab5U, 0x3f1f5a883f663af4U, 0x3ff2a6183f01b6d6U, 0x3f86630bU,
  0xbf0b623ebf44a25aU, 0x3ec9cf8780000000U, 0xbe5cb379U, 0xbe932a7180000000U,
  0x3f6e5b41be794a18U, 0xbf54c950bf287745U, 0x8000000000000000U, 0x3f3f63ffbf6a3c90U,
  0x800000003f42bed7U, 0xbf0ee777bf1370abU, 0x3f8b99fbbf6b9657U, 0x3f165fe600000000U,
  0x8000000000000000U, 0x0U, 0x80000000U, 0x3f2ade4c3f4b64b3U,
  0xbf032e293f42eb6fU, 0xbeddc15dbf09fc1cU, 0x3eb7b23c00000000U, 0x3ecc2c1180000000U,
  0x3ee8463400000000U, 0x3f4c0ff03e81133eU, 0x3e60d278U, 0x80000000be983279U,
  0x0U, 0xbf0907f680000000U, 0xbf0cfdb2bf2418c0U, 0xbe8048d93e85da49U,
  0xbe915caeU, 0x3f00a521becfa0f1U, 0xbf26bcd9bf5f2c73U, 0xbf9e8515bf2b61e9U,
  0xbea7f644bef3fe6eU, 0xbf445d5abfa3b696U, 0xbf162cef80000000U, 0xbec29f6e00000000U,
  0x3f61d9493f0b04e6U, 0x3f49d7413ee03456U, 0x80000000U, 0x3f6a43be3f6bd393U,
  0x800000003f2580f3U, 0xbec50ec180000000U, 0x3e94dd66U, 0xbf19f5013eb7f740U,
  0xbea0a1e5bf34fb2fU, 0xbf8bbab1bf5ac396U, 0x3f29bedabf39d337U, 0x3f6d8ba300000000U,
  0x3f84f1f800000000U, 0x3f247f7600000000U, 0x3ee4007f3f60d634U, 0x3f66388800000000U,
  0x3f1064d9U, 0x80000000U, 0xbec1ae8600000000U, 0xbeec987a80000000U,
  0xbf178aa6bf250c75U, 0x3f0a602bbeb0b015U, 0xbe85fd613f524c01U, 0xbf102d18bf16e0aaU,
  0xbe6fae9180000000U, 0x3ed34a7b80000000U, 0x3e5b0411U, 0x3f2a60373f271bf3U,
  0x3f67bb7100000000U, 0x3f155ca73f6556e6U, 0x3f261a7c3fb49d9fU, 0x3ed5883000000000U,
  0x3f0ee821U, 0x3f008322U, 0x3fb066483f369162U, 0x3f35a9e03f783182U,
  0x0U, 0xbf22699d80000000U, 0x3eca09f7bf29c170U, 0xbf0ba6f7bfc83bf4U,
  0xbef7d05cbf45494dU, 0xbf090c7580000000U, 0xbedb17b1bf8ab959U, 0x3f12969dbf493083U,
  0x8000000080000000U, 0x3e732d08U, 0x3f1c7915beaeb8faU, 0xbed69af43e9b2574U,
  0xbecf0e1a00000000U, 0x3fbd5e5bbf3103f8U, 0x800000003f6ab3caU, 0x80000000beda87c3U,
  0x3f3b4d86bfaac0ddU, 0x80000000U, 0xbe98df65be932e9fU, 0x8000000080000000U,
  0xbf9270e9beb46f32U, 0x80000000U, 0xbe89fc96bf054af8U, 0x0U,
  0xbe5ee3a5bf0dad61U, 0xbf0ab953be74f021U, 0xbee386debe8dacbdU, 0xbf499949U,
  0xbf28a0313f55aaabU, 0x3f60009400000000U, 0x0U, 0x3ecdc9df00000000U,
  0x80000000U, 0x80000000be8ef4acU, 0x3e5db8de80000000U, 0x3f7d18133f04cc0bU,
  0x3f53051d3f456ae7U, 0xbf106add3fa30788U, 0x3f19ab1abfc72a06U, 0xbf3032f8bf64b7c6U,
  0xbf894fc8bd75ebe0U, 0x3f85b5c4bed9df3fU, 0xbef4daca3f4ca240U, 0x3f9061a2bed58bf2U,
  0x3dce5d5d3f156176U, 0x3f59e1ebbe82a377U, 0x3f95c5353fd1957bU, 0xbf4e7bc7bf87aa14U,
  0x3d8b55ab3f15b33aU, 0xbeb90f75be1706f0U, 0x3f1d74e1bf30b6b5U, 0x3f7629383f00fe00U,
  0x3eaf27cabf406b61U, 0xbf6c95d8bee42229U, 0x3f1e13f13efd1411U, 0xbf9ca3b9bfa7cf8fU,
  0x3f7d12a13f837e4fU, 0xbda8f26d3e1f3b26U, 0x3f3c8db93f684a04U, 0xbeb265e6befb8093U,
  0x3d8fb0b33d7fb522U, 0xbe004aa480000000U, 0xbda600ed3e991354U, 0x3e7f405d3de740f7U,
  0x3e4da8e9be4e1a6aU, 0x3e91bbed3df37990U, 0x3d7a91c8be8c5077U, 0x80000000be450d4cU,
  0xbe82830900000000U, 0x80000000U, 0xbd92925bU, 0xbdde3c5c80000000U,
  0x3e274d0ebda5c4b9U, 0xbe37c733be1b7311U, 0x3e52a4ed00000000U, 0x3d6ae9633e96d34cU,
  0xbe1f0f99be0bf176U, 0xbe2f6aaebd3ddef6U, 0x3e106ca4be82fe4aU, 0x80000000bdfae96eU,
  0xbd8da58b80000000U, 0x3e2ad042be23d168U, 0x3e697ae53e185323U, 0x3ded5d143eb16eb8U,
  0xbd3e2d1cbdc74f15U, 0xbe8207e8be8352aeU, 0x8000000000000000U, 0xbd95cdfdbe3c2d83U,
  0xbd2ea50d3dc195b7U, 0x3eacc74cU, 0x3e3b3be480000000U, 0x3df950abbeaefc0cU,
  0x3dbff7d1bde83652U, 0x3da760f6bd203547U, 0xbe9b4ee53da10d31U, 0x3d99104fbe083fc1U,
  0xbd28b8e03e256fb2U, 0x3e08f844be159901U, 0x800000003de66448U, 0xbda03f843d95f242U,
  0xbe256c5f80000000U, 0x3d65d24000000000U, 0x3d93a6b93d877bafU, 0x800000003d29bb84U,
  0x3e2c425580000000U, 0x0U, 0x3d53912a00000000U, 0xbe8e036e3d4329a9U,
  0x3dfab2b8U, 0x0U, 0x3e806d4c80000000U, 0x3e4992033e6f02beU,
  0xbd9f495a80000000U, 0x3dc2688a3e432b80U, 0xbe321e9b00000000U, 0x3eaba3b680000000U,
  0x3e1c77053e7ef800U, 0xbe8665bcbe25f7eaU, 0x3e1823e1U, 0x3d44afbe00000000U,
  0xbe2b4d823d85b5bcU, 0xbdf6caf63e6e315dU, 0xbe3f8105U, 0xbdfc6e583d92dfd8U,
  0xbe1d9d6a3e78dcf4U, 0x3e7187a780000000U, 0xbea49f813e3761e3U, 0xbe742a2ebe04bd61U,
  0x3da59878bebd1f3bU, 0x800000003e2c943bU, 0x3e2646cb3e432630U, 0xbd9a38cbU,
  0x3e4f7c2a00000000U, 0x800000003e6b077dU, 0xbd13a8ebbea4df0dU, 0xbde93f48bdea8982U,
  0x3e12d454bde0ff75U, 0xbdeae77dU, 0x3d83f5a5bdd188a1U, 0xbec0b0a880000000U,
  0x80000000be40aa67U, 0x3dfa60f1U, 0x3e3d3302bea7ba47U, 0x3e40b436bdef1304U,
  0x3db0cfb0U, 0xbe198e7e3e1de534U, 0x3e238d1abe1e9352U, 0xbe7e579c00000000U,
  0xbdd5fb043da3dbf3U, 0xbda925cd00000000U, 0x3e3a002d3dde2fe3U, 0x3e85a1b400000000U,
  0xbd9d91a03da1a328U, 0xbe1c0b033e1ba70bU, 0xbdafb986bd2cd58aU, 0xbe82f341U,
  0xbd063a9f3e2d8300U, 0xbde57ac3bdaa6d8dU, 0x8000000080000000U, 0xbdb3c3a680000000U,
  0xbe10f99abe30bbfdU, 0x3e21eea53e3e5c44U, 0xbe96b583bd968ee5U, 0x3e18c711bd85405fU,
  0xbd3f8960be081a50U, 0x3d9e31f63d36b345U, 0xbe7f2fde3e8c7ea1U, 0x80000000be1c8f11U,
  0xbd43b7acU, 0x3d43bb723e9c0fe0U, 0xbe46963fU, 0xbe32a564bd2b2cdfU,
  0xbe5fbfdaU, 0xbea41c313e4c28feU, 0x80000000bdf982c7U, 0xbe7a9cacbd64362bU,
  0xbd8637eb00000000U, 0x3d347f02U, 0xbd16b73abe61a212U, 0xbdb1c90fbddd7fa2U,
  0x3e8c343d3e86e557U, 0xbdc1041600000000U, 0xbdd4d710bdc49c8dU, 0x3d544f26bda3aa12U,
  0x3e1a79e03dc9ba70U, 0xbe6ce2343d945500U, 0xbe59186e00000000U, 0xbe7710f13e621b6bU,
  0x3d65a7be00000000U, 0x3e55dc443e6c3af4U, 0x80000000be667efcU, 0x3e9467563ecea616U,
  0xbe3a7e77bed143c1U, 0x3e532cc8bd8c9283U, 0x3d7f54263e8219faU, 0xbd98e1e880000000U,
  0x3dfdb36b3d98a898U, 0x8000000080000000U, 0xbe2a7fcfbe0a9b19U, 0x800000003eb9d883U,
  0xbdec00983db7bcd6U, 0xbe0e200c80000000U, 0x3e8774483e85560cU, 0xbe215be8be3372b3U,
  0xbe5477c93e380663U, 0xbe634e8000000000U, 0x3eebcb523e00afe0U, 0x3ebda795bdc7ae02U,
  0xbd803984be3fd332U, 0x3eb8f87fbdd5bf1cU, 0x3e8bc84dU, 0x3ee9bc0380000000U,
  0xbe1ffdf3bd711cc7U, 0xbe665ad080000000U, 0xbe1dbdec3e5ddf34U, 0x3e42c22d00000000U,
  0x3e31081bbdad115dU, 0x800000003e8ca6ccU, 0x3e50d70eU, 0xbd9822ee3da02204U,
  0x3e674a50U, 0xbd960b30be908b3eU, 0xbdedb1653e79606aU, 0xbea0b0babe5f4edfU,
  0x3e3d33a6be1ea10dU, 0xbe6db61c80000000U, 0x800000003dd10d9bU, 0x3e24ac54be8b28faU,
  0x3da72041be147836U, 0x3e6250913e1d314fU, 0x800000003e0656baU, 0x3e92660a00000000U,
  0xbd514445be330951U, 0x3e938159bea9f1cdU, 0x3e5af72bbd86d54aU, 0x3d6ea575U,
  0x80000000be6eb99cU, 0xbddaf5cabe39575dU, 0xbd91beebbdc23024U, 0xbeccb1343e92e0fbU,
  0x3d9f2a1c3dce143dU, 0x3ddc03df80000000U, 0x3d92acdcbe3f8bceU, 0xbe4a9d1100000000U,
  0xbe86a0f8be9ddf30U, 0xbdd0efc33d74de07U, 0x3e0690293dae5e0fU, 0xbdd61c8abe056526U,
  0x3e55dd643e01827aU, 0xbd5d1f0f3dd1c3bbU, 0xbe9e5d4900000000U, 0x80000000bd6f4140U,
  0x3d3aeac93de26ac2U, 0xbdf9af5ebd84ab55U, 0xbd4724c3bdbeb5c7U, 0x3d474e5bbdedbf56U,
  0xbd55f93e3de28c04U, 0x800000003e8fb808U, 0xbdfa8ac2U, 0x3d8c24efbdcb195aU,
  0x3d87eb3200000000U, 0x3de926843d83d322U, 0xbe7837d53dcb6cb3U, 0x3e596969be26cc4fU,
  0x80000000be5c566bU, 0x800000003d364102U, 0xbdcb1d8bbdb7fb8cU, 0x3d6ed51c3d4cae15U,
  0xbe7e6c773d890407U, 0xbdc9c219bda8f030U, 0xbd77903900000000U, 0x3d95e84000000000U,
  0x3dc9d1cabdbbf935U, 0xbd1b47af3e0795e4U, 0xbdae5c58U, 0xbd0735bdbd092739U,
  0x3e11cf0dbe3d8381U, 0x3e96f52800000000U, 0x3e4cf2f980000000U, 0x3eaa4bc53dbde241U,
  0x80000000U, 0x3e34cc423ea607f0U, 0xbda75ead3ee14693U, 0x3ddfae42bd9ec6eaU,
  0xbe21a124be2b25bdU, 0xbe68338c00000000U, 0xbe57a4c23e6ddef2U, 0xbdb720293e523a6dU,
  0x80000000be59460bU, 0xbe63dc21be982af6U, 0x3e6af95dbe6e0b70U, 0x3d952e2d3e3371c1U,
  0x3d5433cf3e00d472U, 0xbdaaa672be6e8168U, 0xbd7f9207bd6150f3U, 0xbed0840fbdc6ab9aU,
  0x3ec799883da69c92U, 0xbdb2e05f3d8677c9U, 0x8000000000000000U, 0x8000000080000000U,
  0x3e447f2d3eab04d1U, 0xbe90571f80000000U, 0x3e2c751c3e8dc51dU, 0x3eabd4c080000000U,
  0xbda3104c80000000U, 0x3e347507U, 0x3ea9c69400000000U, 0x3de2361280000000U,
  0xbebed0e380000000U, 0xbe26e0ea80000000U, 0xbd82810f3dd5f528U, 0x3da9f8f380000000U,
  0x3ded77a5be5ab562U, 0x3d3522c500000000U, 0xbd70dd32be9cf96aU, 0xbd8dc2d93da91d7dU,
  0xbe9ed5863e80c0a4U, 0x3e922d4bbe940296U, 0x3d2ec4503e0d1b84U, 0xbe5c877480000000U,
  0x3e25b9e780000000U, 0xbde17facbe57868aU, 0x80000000be8ce510U, 0x3e248e6ebe9cce30U,
  0x3e86606d3e1784c6U, 0xbea79ffd80000000U, 0x3e50dd3e3e400db9U, 0xbe17f0b780000000U,
  0xbe5b8038be805818U, 0x3e64815800000000U, 0x3e3f8e9fbea3a638U, 0x3e50a01fbe8c3f16U,
  0x80000000bd8c9b9fU, 0xbf07d8a3be1e803bU, 0xbe84e7cd3ea66d97U, 0x3e40b571bdb937d8U,
  0x3e8bee43be9a9a0cU, 0x3e2ac35300000000U, 0x80000000bda578e5U, 0x3e1eeafe3e34e210U,
  0x3db7ce793e8c4f52U, 0xbe11a71300000000U, 0xbde138fb3e0ca0fcU, 0x0U,
  0x3ed216d53e1ecea3U, 0xbe87a69b3dd5524dU, 0x800000003de826baU, 0x3e17454bbe6da27cU,
  0x3dd764b6bd72d04cU, 0xbd52c7453dd92a17U, 0xbee0fcfd3d1eed2cU, 0x3e55775200000000U,
  0x3e36665dbd95fa8aU, 0x3eb5ec6000000000U, 0xbdd1dddcbe35e14aU, 0x800000003e20f85fU,
  0x3dcbb286bd2214c9U, 0x3ea01210be29d1a5U, 0x80000000be13cdb3U, 0x3d98c23f3ecec2c5U,
  0x3de6d6c200000000U, 0x3db972c9bda9773cU, 0x3e42bb2b80000000U, 0xbdfed29c3da46f91U,
  0x80000000U, 0x0U, 0x3d8801493e139060U, 0x3dbbecde3e47b0a1U,
  0xbe6e6e3f00000000U, 0xbd3733dabdfddbc0U, 0xbe3f134d00000000U, 0x8000000080000000U,
  0x3e0628613e3277caU, 0xbda2e313bd3ead0dU, 0xbd73ebd33e01734fU, 0xbdef35cc3d98e811U,
  0xbe624feabe8a129aU, 0x3d0dc496bdbd8fecU, 0x3d63677cbd260804U, 0x3dc4a2a5bd51e88cU,
  0x3d9a25fb3ddff4f7U, 0xbd25aa7c3da7c86cU, 0xbe4d1c27be1e05adU, 0x800000003dd5c764U,
  0xbdfd97b23cbedbd6U, 0xbe0dde6dbdec942dU, 0x3d30832400000000U, 0x3da2aeb980000000U,
  0xbdfb3e8700000000U, 0xbd0100f1be8f9331U, 0xbdebef8ebdb46fedU, 0xbe16f301be3362c7U,
  0x3d13beb7beac7176U, 0x800000003e2509b1U, 0x3e29c4c7bd334e09U, 0xbd1e499200000000U,
  0xbdc325003d69d66eU, 0x3e3f9b53be03ada4U, 0x3e00d8763d72af4fU, 0x3d21fdde80000000U,
  0x800000003e840959U, 0xbd172db680000000U, 0x3dd906423daba15fU, 0x3e7ebee53e28bf80U,
  0xbdf8c41c3e848ca6U, 0xbe08d33b80000000U, 0x3d825a673e17d498U, 0x3e47040cbd3a073eU,
  0xbdb9d7ecbe37e710U, 0xbde7255580000000U, 0x3dd79ad2be5cc733U, 0x3d965eac3d6a2dbfU,
  0xbe4a2fe080000000U, 0x3e284454be58b920U, 0xbe8637cf00000000U, 0x3e2039e93defaa04U,
  0x8000000000000000U, 0xbe28fa60bd1da2faU, 0x3db852bfbd196091U, 0xbe48c89580000000U,
  0xbe92982a80000000U, 0x3e1ed7b1bd88f8b7U, 0x3d43ce5fbeba5226U, 0xbdebf84fU,
  0x800000003e4e805cU, 0x8000000000000000U, 0x3dc786c180000000U, 0x3e841c40U,
  0x3df8ab19U, 0x3d8326b33de5daa9U, 0x3e69f8c0be9b6939U, 0x3d5851d63ec159b9U,
  0x3d466b8c3e078a5aU, 0xbd5ca6d7bdf156aaU, 0x3db64763be56858fU, 0xbe2729f3be6bcd8fU,
  0xbdc4f7dbbe6fb222U, 0xbe7047833d9d340fU, 0x3e29e7e63ef6b302U, 0x3e2d72ae3e43eb7cU,
  0x3dd2d5953d9f99c0U, 0xbe2eec063e34c678U, 0x3da26260be1f6ddbU, 0x3dca221dbebae773U,
  0xbdfefa4bbdb3ed1fU, 0x3d9a66ef00000000U, 0xbd60663080000000U, 0xbde66d033dcb37fcU,
  0xbdee13663d529455U, 0x8000000080000000U, 0x3daa427fbde3fa6dU, 0x3d8d9e50U,
  0x8000000000000000U, 0x3e3d63eebe12f855U, 0xbd9fdbf83e31ba81U, 0xbd2464883d8d501fU,
  0x3e4460dbbd8e63e1U, 0xbe86800cU, 0x3daf92d100000000U, 0x3e6a9e233e1cfc21U,
  0xbd82504100000000U, 0x80000000bd101ed4U, 0x8000000000000000U, 0x3e0655d9bd08f086U,
  0xbdbb93c63e2b226dU, 0xbe8f3e723db7a99eU, 0x0U, 0xbe77fef73d6f8cf6U,
  0x80000000bd35031fU, 0x3e99fcdcU, 0x3e20fb55be31d74eU, 0x3e291e15bdf07bd4U,
  0x3d88863f3db41933U, 0x8000000080000000U, 0x3d6cc94680000000U, 0xbea304b900000000U,
  0x80000000bda93352U, 0xbd8fe322bd85ae0fU, 0x3e5708c6bd9e75e6U, 0x800000003e577c07U,
  0x800000003de02f85U, 0x3d9143d13d527c20U, 0x3e4bfa843d9df0d3U, 0xbe144b013df6fe23U,
  0x80000000bd945badU, 0xbe2b5ddfbe386389U, 0xbdfa479b80000000U, 0x3da876953ed35a23U,
  0xbdc9770a80000000U, 0xbdb0052f3e1db223U, 0x3ddb49f6U, 0xbe39171bbe313db4U,
  0x80000000bd61e1d9U, 0x3da26eb3be7721d3U, 0x3d95cf713e2dcae1U, 0x3d87dbe6be3716faU,
  0xbe101b643eae594bU, 0x800000003e1567b3U, 0x3e06141b3dcbf6c1U, 0xbdfdd6acbe80da9bU,
  0xbdf4dbc3U, 0x80000000U, 0x800000003e64d5d0U, 0x3e232839bea10786U,
  0x3e3cbfe8U, 0x3dc6bb29bec17072U, 0x3e75c8353dfd602fU, 0xbe22fe9580000000U,
  0x3e9c0606U, 0x3e22bcf83e0a2f21U, 0x3d3aad0680000000U, 0xbd5ed0363d9f7dcdU,
  0x3e581951bda8d20fU, 0xbd56eb223d981dadU, 0xbe48b25b3dbc9062U, 0x3e85c61c00000000U,
  0xbd7428f9bd22cc62U, 0x800000003e5e7db5U, 0x3ddc1ff0be4f7c6bU, 0xbdc988af3d32c35aU,
  0x80000000be0eb357U, 0x3e062e0ebddbb631U, 0xbdb2ab1ebdd80975U, 0xbef4b4c63da12f13U,
  0xbd6ab5553e86a946U, 0x3e0e254300000000U, 0x3dcd58e8bf0855ddU, 0x3d863fb1bdb452d4U,
  0x3e0f9620be58d38eU, 0x3d59181f3d81144bU, 0x80000000be762836U, 0xbeac5f9dbdc0dd88U,
  0xbe2ec85d3ed8dbaeU, 0xbdc68d5f3df54d50U, 0xbdc7e668bd71190dU, 0xbe764fe580000000U,
  0xbdb48c963e648b16U, 0x3de0125f3d5709edU, 0xbe03b0eb3da44ba2U, 0x80000000U,
  0x3dd8c3ac3e7e2e6aU, 0x800000003ea59ac4U, 0xbe0b959e00000000U, 0x3e0f3462be336dc7U,
  0x3eaf5b083e76a697U, 0x800000003e1018c6U, 0x3e46cef7U, 0xbd7863f3bea19731U,
  0xbdac9937beedeaa2U, 0x3df010b300000000U, 0x3e555fdc80000000U, 0xbe7b144580000000U,
  0x3dc9199100000000U, 0xbe060a86bd5e666eU, 0xbe824fc8bdc4f38fU, 0x3d8bcf5380000000U,
  0x3e715628bedb74fcU, 0xbde6582eU, 0x800000003e99f0aeU, 0x3ded0a753d6aba10U,
  0x3dfd722480000000U, 0xbe7d55ebbdf6c137U, 0xbd31c3cb3e16357eU, 0x3e2411f73db92baaU,
  0xbde6607a3ea0a194U, 0x3e7a86283e82c33cU, 0xbec96a22U, 0x3e9f7923be0348c3U,
  0xbe3cfdb33d7316deU, 0xbdae473cbe22258aU, 0xbdd4a9eebd9249eaU, 0xbe8020f300000000U,
  0x3e8171993dc68513U, 0x3e31964180000000U, 0xbef1eed1U, 0x3df8d841U,
  0x3d8d12d43e524dd0U, 0x3e30fa6280000000U, 0xbe36466c3da23025U, 0xbe42a8a2U,
  0x3e13bd82be045252U, 0x80000000U, 0xbe80d5b93e05877fU, 0x3e28a7fb3e8e7058U,
  0x3dc710603e82423dU, 0xbd8c646a3eea3961U, 0x800000003def0e98U, 0x3dfdb663bdfb93b3U,
  0x3d558d203ddabe9bU, 0xbe9880a63ec0f3cdU, 0xbdfc25073deb0a11U, 0xbe09af86bea67864U,
  0xbde705ca00000000U, 0xbe85dae63d35dc6eU, 0x800000003e8a6c83U, 0xbdeb12173dbcb79eU,
  0x3d9060a4U, 0x3e341a16be4b0cdeU, 0x3e1f6c15bd86f113U, 0xbe03bb293e9c252eU,
  0x3e54d32900000000U, 0x3d86551dbdbc21b7U, 0xbec1e84500000000U, 0xbe5cdbe100000000U,
  0xbe3dc0acbdcae07dU, 0x8000000000000000U, 0xbda7b25e3e218486U, 0x3e3c3d993ea5345bU,
  0x3da8425700000000U, 0xbd5b435a3e3f40e3U, 0xbe1fc5ed00000000U, 0x3eb24eeebe0ce585U,
  0xbe1ed2eebe8a2d3eU, 0x80000000be936e2fU, 0x3dd5c158U, 0x3e4ebbfa80000000U,
  0x3e2119073da1dbffU, 0x3e4ad3ccbe5e66d9U, 0xbda98c0f80000000U, 0xbd849dd43e49caafU,
  0xbe2e19613db644c6U, 0x8000000080000000U, 0x3e1f957cbe971013U, 0x3db702e6U,
  0x3d932ab13e69f77dU, 0xbe1e47b580000000U, 0x3e96adedbd98b210U, 0xbe2d73973e47a541U,
  0x8000000000000000U, 0xbe2ada863e28f4a7U, 0x800000003d58ed99U, 0x3d86da69bd9d63e1U,
  0x3e8928713dcde75bU, 0x8000000080000000U, 0x3d3b6e273e745e00U, 0xbec40c06be1a9812U,
  0x3eaad745bdbe142fU, 0x3e8a5b353eaa6b4dU, 0x3e83f0103d7d933bU, 0xbdc13f6abe8988c3U,
  0x3e463c513d74de5cU, 0xbe5ebf3000000000U, 0xbec0a6b93ed1298eU, 0xbe2024ec3d79ed51U,
  0x3daf433980000000U, 0x800000003e280148U, 0x3df701243dab2cbdU, 0xbe080c6bbe804572U,
  0xbd71cc2fbe7dc9d9U, 0xbe514b8300000000U, 0x3eb6fba83e1341f0U, 0xbd8a9ff780000000U,
  0x3df762af00000000U, 0xbe47f4baU, 0xbde583713e452215U, 0x3e87f29600000000U,
  0xbe135dc080000000U, 0x80000000be0b21d6U, 0xbe665c72be08e6fcU, 0xbd72a84400000000U,
  0x3dd9bde63e4744e0U, 0x800000003ecec7f5U, 0x80000000be16d7b5U, 0x3e19dc9abdac2c31U,
  0x80000000bddd1624U, 0xbe039d77be703d90U, 0x3e0373a83e351899U, 0xbe8b76b4bdd8634aU,
  0x3e46e65bbe2f7f9bU, 0x3dfc368bbd94d8f1U, 0x3e4ec9afbe5a8ce2U, 0x800000003ec66f57U,
  0x3e9d5cb2U, 0xbe3ef48d3d8a683cU, 0xbe0bbd63be4272c9U, 0x3d3380723db34ce9U,
  0xbe128e02be76f601U, 0xbe4b3cacbdb9c838U, 0x80000000bdbb4f06U, 0x3decb0cc3ed654b2U,
  0x0U, 0xbebacd8ebd8ec8feU, 0x80000000bd4257e9U, 0xbe425223U,
  0x3db51b88U, 0x3ea4f68bU, 0x3d80fd34be96607dU, 0x3e6480cfbe5839d5U,
  0x3da12f22U, 0xbdb5261a80000000U, 0xbe38352480000000U, 0x3e56e41bbd3defcdU,
  0xbd2668c280000000U, 0x3e9b1f743e17a6c4U, 0x3da72d99beab4f52U, 0x3d91ca603e708827U,
  0x80000000bd3a60bfU, 0xbe5c9fb43e8b6094U, 0xbe82bb32bdf09d0eU, 0xbed3b27cbdcc9679U,
  0x3e82616880000000U, 0xbd98996e3d504bc5U, 0xbdd9855480000000U, 0x80000000bdbf6da0U,
  0xbe457a953d84677fU, 0xbdd4f04980000000U, 0x3d9969b9U, 0x80000000be0dbc7eU,
  0xbd96d7b23db31c8eU, 0xbe1705593dcfc619U, 0xbeb9eed93d70cd2aU, 0x3e7b10ddbee8ccecU,
  0x80000000bd2fb6deU, 0x3e3f5c76be571544U, 0x3d0b9c5cbe2a7bf2U, 0x80000000be468a8fU,
  0x3de333063d91452bU, 0x80000000bd36fe86U, 0x3e36047fbe2e0bb3U, 0xbe2bd7f7be66f676U,
  0x80000000U, 0x3d964b0aU, 0x3dae62863d48452bU, 0xbec73d113dfdf1d3U,
  0x3db8ba0f3e5f0f43U, 0x3d066f973d09e8c3U, 0x3d703c643e285d10U, 0x3cf718683e766ad8U,
  0x800000003e025597U, 0xbe3385cb80000000U, 0x3e159522U, 0xbd63a568U,
  0xbe305aa53dd49792U, 0xbd918663bdbff3baU, 0xbdf63b48bd994191U, 0x3d5d925280000000U,
  0x3eec3274bdbded41U, 0x3e2ac6183db51aaeU, 0x3e327252bd511cefU, 0xbdd60c673d4c1571U,
  0xbe05de5a3e0bd0feU, 0x3db4b05b3d46afbdU, 0x3ea0c3abbebb13b0U, 0x3e7faf7e3e9918a3U,
  0x800000003d36481cU, 0xbdb23ad800000000U, 0xbdb04707beb572caU, 0xbe191fabbda77776U,
  0xbe142102be857d9aU, 0xbe2a23fe80000000U, 0x3e7540f480000000U, 0x3dae2412bd8907aeU,
  0x3e024c06bd64219cU, 0xbe8bb3093d480fd7U, 0xbda863063e0ddef0U, 0xbdc4381abe812cddU,
  0x3e8af6333d8bbbc7U, 0x800000003e134dcaU, 0xbdc1ee7abe1f60e1U, 0x3dfa5227U,
  0x3e1c5d3fbea1ccd6U, 0xbe2d5dc3U, 0x800000003eac94fcU, 0xbe26c512bdff85e2U,
  0x3d8843e43eccf1e7U, 0x3dcf17c13db3cbadU, 0x3d9b951e80000000U, 0x800000003eb7b234U,
  0x800000003e39bd28U, 0xbe883ac23e037224U, 0xbdb2ae3e3e022b06U, 0xbebead9f3e37300dU,
  0xbe9c6058be466ad8U, 0xbd9c78afbdd2eaaeU, 0x3e3fc426be468f44U, 0x3ed2ae0a00000000U,
  0xbdedb28b3e799c2fU, 0xbe92d04580000000U, 0xbe1a3d3900000000U, 0xbe7b83acU,
  0x3d34bcf33e81b495U, 0x3da26fa13e8c811eU, 0xbdaf538dbe8e15fbU, 0xbe3a94db00000000U,
  0xbe4fb8aebe25b0d0U, 0x3dda0420bdf3108cU, 0x3e70ef19be0c4901U, 0xbed23a4480000000U,
  0x3dcb8c023e578dd5U, 0x3e35304fbe5de0d7U, 0xbd7b8f9bbe995946U, 0x80000000U,
  0x3e94c03680000000U, 0x800000003e134450U, 0xbeba4c7c3dde6191U, 0xbe698dc03d5f97ecU,
  0x3e2f8c2e3dbced8bU, 0xbe9e702e3d97a4f4U, 0xbdbeda1ebe897617U, 0xbe813d4e3f021af7U,
  0x3de1032cU, 0x3dff28a6bd63b6f3U, 0x3db9cbf600000000U, 0x3da07c1dbda30d8dU,
  0xbdaa48d180000000U, 0x3e7ad0133d73e30eU, 0x80000000be25f9e8U, 0x8000000080000000U,
  0xbdcad623U, 0x3ed22863bdba36aeU, 0x3e865090bf102371U, 0xbe4b73633e0ae918U,
  0x3d9e10fb3ebd048eU, 0x3ee78fe83d8297e7U, 0xbdd6c484be8fb5f3U, 0x800000003e8e7bcbU,
  0x3e061bb73e0ea24aU, 0x800000003e1a164eU, 0x3e4b2890be932ae6U, 0x8000000000000000U,
  0x80000000be06831bU, 0xbda3f5833db0e892U, 0xbe642f81U, 0x3dfe8d23bdaedcd2U,
  0x3df3c27500000000U, 0x3e0e2e98bdb290feU, 0xbe60a5d23e5f004aU, 0x8000000080000000U,
  0xbe561f22bd237eccU, 0xbd72a440be142fd7U, 0x3d2c1e003eb047c5U, 0x3daef86700000000U,
  0xbe3dd24fbe3ace27U, 0xbdbe8fcebe338d6fU, 0x3d60d7e23d52eb29U, 0x3d64f0fdU,
  0xbd80baef3daf4896U, 0xbe8e70d5bd7cee2bU, 0x800000003e8bb418U, 0xbd636b0bU,
  0xbd3d97ddbea82840U, 0xbe0b63e4be05fdabU, 0x3d46b05200000000U, 0xbe27574b00000000U,
  0xbe48825800000000U, 0xbd236e54U, 0xbe4e29be00000000U, 0xbe43455fbdf7395dU,
  0x3e6d7cdabdb49963U, 0xbdefcb4c3d146165U, 0xbd961c05bd86e7edU, 0x3e44ac1abdb5d17cU,
  0x3e0839c33dc934edU, 0xbd9cef3c3d1f4860U, 0x3db1a2293e30678dU, 0x800000003e153643U,
  0x3dce98a13e0a229fU, 0xbd7abc743d9a02d0U, 0xbdaf12d43d5636c1U, 0x3d06e6d5be274ed4U,
  0x3d48928aU, 0x3dac7079bd335b27U, 0x3d9bdbfdU, 0xbdc550f000000000U,
  0x3de1088980000000U, 0x3d22865380000000U, 0xbdcc494ebdd92956U, 0xbd2da16fU,
  0x3d57f47ebec6bd10U, 0xbe03aa8fbd23e84aU, 0xbe09bb4b3d220e29U, 0x3dc3a674bd7b61abU,
  0xbe2e71573dcf3a48U, 0x3d3c76c8bd0c2609U, 0x3d4587e1bd4e691eU, 0xbe161ea2bdd3a687U,
  0x3dad0ae3U, 0xbd9ba33b3e730205U, 0xbe14d4d2bef04925U, 0xbd3a0a41bdec93f7U,
  0xbdee0b243e988d24U, 0xbe1299df80000000U, 0x3d8f64ef80000000U, 0x3d9834b8U,
  0x800000003e0e8c94U, 0xbe0875fe3e27d641U, 0x3d6d5968bdbe393aU, 0xbe2f022f3e185d83U,
  0x3e83dac1be12be00U, 0xbe5194683e367a60U, 0x3e451e9dbe7972e3U, 0x800000003d8bddcdU,
  0x3e2caf94bd297e5aU, 0x3d715ef73ea2350dU, 0x3e58d6153d8f1c03U, 0x3e6180bb3e453ba3U,
  0x3e50221b80000000U, 0xbe311431U, 0x3e8082d33e06de67U, 0xbe4fd17800000000U,
  0x800000003e00354bU, 0xbdc066bebdac99cfU, 0xbdc02d353df77b99U, 0xbd15f35c3e29c727U,
  0x3d3233e0bcebfda1U, 0x3e235092U, 0xbd28068e00000000U, 0x3dab3aa1bd21da1cU,
  0x3e188796bd988539U, 0x800000003dad2438U, 0xbe0aab673d63f851U, 0x3e1fe62bbdbbd6c9U,
  0xbd987f6780000000U, 0x800000003de2d427U, 0xbe104bdc3e02fe50U, 0xbdeabbf63d0825deU,
  0xbea0c96e3e1da92cU, 0x3dfc1e16be0350b8U, 0xbddbcff63dfbeeefU, 0xbe2f2a8e3d009c37U,
  0x3d9b118dbe7832beU, 0xbd68373f3dada202U, 0xbdcceaa0be00487cU, 0x800000003e251817U,
  0xbd3369a280000000U, 0xbd4f032100000000U, 0xbe2e00893d351145U, 0xbe493ab83da3d839U,
  0xbd504b4cbe1f87dbU, 0xbdb6d6c7bdb06337U, 0xbe99fa14bddc6320U, 0x3ddaf2a5bd7cec8cU,
  0xbe110beebdb0b302U, 0x3d89a4a0bdcd88d9U, 0xbda3fc8a3d11e54bU, 0x3d83c18ebdef4b74U,
  0x3d872cabbe6d876dU, 0xbdb182aa3e506548U, 0x3e639f443e16fe43U, 0x3e352bb1be0f985fU,
  0x3d9aafccbe35d960U, 0xbdbbc001bdf8d1dfU, 0xbe697d05bdceee63U, 0x80000000be1ca599U,
  0x3e30e68500000000U, 0xbe10882b3e0c33f3U, 0x3d44ff0ebe56e311U, 0x3e5626d1bddbc7daU,
  0xbda33a16be51d2b8U, 0xbe4910bb3da86bcaU, 0x3e07116abd3d165cU, 0x3d9e0e223db766d4U,
  0xbd39e9ef3df447e5U, 0xbdd08cf93e250e2bU, 0x3e7c64dbbdd2b5dbU, 0x3e63065d3d2093bdU,
  0x3e0de8ce3d5fb973U, 0xbd5bdb313e7f959aU, 0xbe9c31fe3e0edd3bU, 0xbd4e762bbe1469cdU,
  0x3e4b04d080000000U, 0x3d1b2c96bea617f8U, 0x3ea599ea3e0948ceU, 0x3e31279c3e5b953eU,
  0xbe00cca73e0b5d8cU, 0x3e4ad637U, 0x3dd519ec3db31efaU, 0x3de398af3e9ad141U,
  0xbd58fc983d6970eaU, 0xbe6837a5bd5842d0U, 0x3df3475480000000U, 0xbdb3c0f8bde86cb2U,
  0xbd6f64033e19b44dU, 0x80000000bde8abc0U, 0x3e1fe65d3dddec59U, 0x3dacd9303d91cdaaU,
  0xbe62952780000000U, 0x3cfd36a03e2592ccU, 0xbdc14087U, 0xbe6e12a1be0a5e48U,
  0x3deb6f4fU, 0xbe99af9b3dd8bf84U, 0xbdd4bb863e5423d6U, 0x3e6396b13d564acaU,
  0x800000003d985afbU, 0xbd93e156bdf4fc27U, 0xbd20142080000000U, 0xbe05ddf73dce8c43U,
  0x3de3dedeU, 0x80000000U, 0x3df158ffbd140dfaU, 0x3de0b7d4bdc1d13eU,
  0x3d06355800000000U, 0x3d9d6fc580000000U, 0x3d69b3153e6f445cU, 0x3d60695d00000000U,
  0x3e13bf88be0edcbeU, 0x3dc8f2743e985a55U, 0x3db68d5abe287d51U, 0xbe5f20ff3e3fff7cU,
  0x3e9e06c0bda30199U, 0xbea79f8c3e22cb0eU, 0x3d4d747d3e28ef96U, 0xbd5bd666bd9c9ee0U,
  0xbe383fdcbe6cf3b2U, 0x3e1208373d944874U, 0x3dec481ebd488b3dU, 0x3d666e3dU,
  0xbe80732b80000000U, 0x3d7d507f80000000U, 0xbd92a29bbdcf7cb0U, 0xbe1e12493eaeae71U,
  0x80000000bd987289U, 0xbe63313c80000000U, 0xbe3d8d3c3e4eb06cU, 0x3e1b20a73f002544U,
  0xbda0cede3dc280e3U, 0xbeaead0a3de7d07cU, 0xbd2fa6e0U, 0x3e07f478be8ac0edU,
  0xbe82944b3d96474eU, 0xbe2918b33e872f8aU, 0x80000000becac93aU, 0xbe05cb8bbe9295a2U,
  0xbe2ca4f7U, 0xbeba9f9880000000U, 0xbe1e1c6e3ecbd87bU, 0xbe17844abda41750U,
  0x3e4f9218be6cb39fU, 0x3e657f5c00000000U, 0x3da04202be57d4ffU, 0xbdc997723ea38793U,
  0xbdd01f3d3e754bb8U, 0xbe8bd2ce3dcb6bf4U, 0xbddf11e9be4dff8fU, 0xbea94a4a3e65ac6dU,
  0x3e351d02be279b5bU, 0xbe3c46243e18e61cU, 0x80000000be3b125fU, 0x3e358abbbde3ff29U,
  0x3d9a8a87U, 0xbe6c65f4be53fb22U, 0xbe654314bdc468f1U, 0xbe55ce5bU,
  0xbe42f97dU, 0xbe2b737b3ed0e9c3U, 0xbd7684a23da7862cU, 0x80000000be9b4b05U,
  0xbea30f06bd740253U, 0x3e5bd1ec3daeba3eU, 0x3e94afb63dcddaf3U, 0x3e4283a880000000U,
  0x3e5e72ff3d72a4f0U, 0xbe6f10cf3dfe9433U, 0xbe27747a3e8a180eU, 0xbe4dee9d80000000U,
  0x3dcac0f13e653172U, 0x3e61a84b3f1c81b6U, 0x3eb301d93d81bf1fU, 0x3d94c2d13da0674fU,
  0x3d9b2ba13e8196b0U, 0x3ed062053e4eff6fU, 0xbe3178f93de383ffU, 0xbeb17910be8e2b3bU,
  0xbe8b47b63d7ef97bU, 0xbe02749e3e77c4a8U, 0xbd84727fU, 0xbe449da380000000U,
  0xbd790b2d3de7359eU, 0x80000000bd11db12U, 0x3dd978043e634629U, 0x3d4def3aU,
  0xbe562869bd205fcbU, 0xbdb0492f3e2f7151U, 0x3d507961bd9b00f6U, 0x800000003d589015U,
  0x80000000U, 0xbe1cc627be71eaedU, 0x3d68156b00000000U, 0xbd928c9cbd31a8dbU,
  0x3d2908be3ec54e81U, 0x80000000be6c9ca3U, 0xbd1c9193bd9c8c62U, 0x80000000be297486U,
  0x3e089b613eb753c5U, 0x3e6dd40300000000U, 0xbe274a5b3da46edfU, 0x3df402df80000000U,
  0x3e82cd01be3f9822U, 0xbd10a6e13e0d5e31U, 0x3dc0f8c63d812472U, 0x3dfdcd5d3dfbb86fU,
  0xbda9e1f8be685ea4U, 0x8000000000000000U, 0x3e36b1b6be116321U, 0x3e61943abe03fe31U,
  0x3e249215bdd29eb2U, 0x3df5e36d80000000U, 0x80000000bdeae2f2U, 0xbd79d2e780000000U,
  0xbe04b6043dd4be56U, 0xbda73ba7U, 0x3d6ae775be502ca0U, 0xbd6bc69400000000U,
  0x3e5c7ccfbe02ca38U, 0xbe3312b33dc5a3b8U, 0x80000000be88b66fU, 0xbd900f69U,
  0x80000000be2aca17U, 0xbeaf83aa3ddcad81U, 0xbe2ace0b3e2b9aa8U, 0x3e1aa58aU,
  0x3e89ff04bd31e971U, 0x3ebbf663bdef6e9dU, 0xbdfd59e200000000U, 0x3de0a2ffbd50c349U,
  0xbe12ea9380000000U, 0x3deb59753e21fcb8U, 0x800000003d956defU, 0xbe5c45b180000000U,
  0xbe294d293ddcd633U, 0x3ee19e16bdc33354U, 0x3dad7f55U, 0x3ee739e280000000U,
  0xbe75fb9bU, 0xbed6c64e3d8f1159U, 0xbef509af3e9b2bd3U, 0x3ec941bc3e64dedaU,
  0x3e84011d3e146625U, 0xbdea160380000000U, 0x3e15ed4080000000U, 0x3e7dd4b8U,
  0x3ed3ac36bdf1ddecU, 0xbe131eafU, 0x3e36faf780000000U, 0xbda453edbe187ad4U,
  0x3ea8e0243e41f25fU, 0xbe94407abd5bc194U, 0x3e3bd1c63e08989fU, 0xbe38d6f5beba7020U,
  0x3d9a786aU, 0xbeb9fc6b00000000U, 0xbe8b7b87bd8a9f8cU, 0x3e337fef3da43467U,
  0x3e091a8dU, 0x3e8c3e6e80000000U, 0x3e1fc030be97bcd2U, 0x800000003e51c1d2U,
  0x3e137b5b3e5dad7eU, 0x3e5d3daabe0d28ebU, 0x3e515e6bbeaafa1bU, 0x3e0935413e119f78U,
  0x3d74d6533e288afaU, 0xbd940923be25d6b9U, 0x3db31faa00000000U, 0xbdd16dd23e9f6981U,
  0x0U, 0xbd5bb9093d8f08f5U, 0x80000000be5236d5U, 0x3e89d204U,
  0x3de39892bdc141fbU, 0x3d9c1b8f3e14227eU, 0x3d9e3116bda39c37U, 0x0U,
  0x8000000000000000U, 0xbe21a0623e16719dU, 0xbd6fd6813e3711e6U, 0xbe954145be338482U,
  0xbe46c5e0be9b855dU, 0x800000003e88dfbaU, 0xbd97cd2cbd63fc64U, 0xbe4bff22U,
  0xbe1ddf6c3dd8859dU, 0xbddf23e23e21b1cbU, 0xbea3f29f3e0cc383U, 0xbe3e0b90U,
  0x3dc3d77a3d803ee3U, 0x3e5620df3ef21a22U, 0x3e910938be8d7be4U, 0xbea069d5U,
  0xbdbc6a5600000000U, 0x800000003eb09000U, 0x3e5b2e7080000000U, 0xbebfc7aabe122d14U,
  0xbe0dad3c00000000U, 0x8000000000000000U, 0xbe89a240be26e310U, 0x3d6ebb2bbdbc3532U,
  0xbe2484b100000000U, 0x80000000U, 0x3db44c053e5c0156U, 0x3dd23c60be19b401U,
  0x3e8d59fe3e1d7c05U, 0x0U, 0x8000000000000000U, 0xbebeaf88be6a964dU,
  0xbdf113fdbd82b70dU, 0x3e573a00U, 0xbe467013U, 0x8000000000000000U,
  0xbe3b718bbecd6776U, 0x3d8aed6280000000U, 0x3e00a89bbd629e3cU, 0x80000000be2d4aa7U,
  0x3d9b88cf80000000U, 0xbeb29e3e3def06feU, 0x3e04ddc7U, 0x3dc7cff33e88a6eaU,
  0x3dd212403daba31bU, 0xbd50ece63e981977U, 0x3e1f74d33e55ba7bU, 0xbd822815bdd8df52U,
  0x3e7ae76180000000U, 0xbe41a85c3d3fc051U, 0x3d80e288U, 0x800000003d6e3514U,
  0x3e388a0e3d72f49aU, 0x3d126775be178338U, 0x80000000U, 0x3e614c18U,
  0x3d99141abe4cb63dU, 0x3e98a5fb3d4b04c6U, 0x3d2ad9903e11375cU, 0xbea3528a80000000U,
  0xbe83e68100000000U, 0x3d2bc8123d9d538bU, 0xbe299258U, 0xbe0f09cfbd3726e1U,
  0xbe1f259ebdc8b04cU, 0xbe2f54d53da65711U, 0x3e417458bd9acc67U, 0x3e86102abda7fab8U,
  0x3e6db49e3dc43f3fU, 0xbe0b6c89bd85cca7U, 0xbe78401b3dded747U, 0x80000000be3edb1fU,
  0xbdce6ac7bdd3cd34U, 0x3da1b258be4248f5U, 0x0U, 0x3e1f6af500000000U,
  0x3d8cae2500000000U, 0xbe7e6ea200000000U, 0xbd7282fc3e683293U, 0x3ea0c36ebda2cd01U,
  0x3e0ec92000000000U, 0x3d976044bd6df0a3U, 0x3df7a9c9U, 0x3e6fbbf7be36f13aU,
  0x3d925151bdc7017fU, 0xbd975d7200000000U, 0x3e5f0beb80000000U, 0xbd9db92280000000U,
  0xbec7d6483e5887c0U, 0xbe9820dfU, 0xbda9c81500000000U, 0x800000003e5d9ea2U,
  0x3d7ff7e6be04e182U, 0xbd46d606bd8abcd4U, 0xbe819b5e80000000U, 0x3d852f28bdc4d966U,
  0x3eb1f5583e177f2bU, 0x3d69a5793e61e578U, 0x80000000bdf08a22U, 0xbd8a24c9be88a2b9U,
  0x3e0bc66f3e31d73bU, 0xbe53f47300000000U, 0xbe065a07be47d29bU, 0x3d923a4280000000U,
  0x3e98b9a800000000U, 0x3dbc0ea13dd10114U, 0x3e5b12b1be67f036U, 0x80000000bdfb5a94U,
  0xbddc4531be51f260U, 0x3dbf0a35U, 0x3e99dd9c3dab4a78U, 0xbe43d29cbe757581U,
  0x3e485941bdef8c66U, 0x3e613b543ddaaa07U, 0x80000000bd89d926U, 0x3f1c31a2U,
  0x3dec78743e1318afU, 0xbdb019b7U, 0x3dac248f3de78aeaU, 0xbe4f2a023e1f8465U,
  0xbe968af400000000U, 0xbe0bc0323d693a84U, 0x3d526a793e2fdb7cU, 0xbdc0b529U,
  0x3e5c9659be9ac295U, 0x3e59e4f13e47733fU, 0x3e565e9f3db214f7U, 0xbda2016cbdd8622eU,
  0xbd6e9f5f3e5c780fU, 0x80000000U, 0x80000000beabf82dU, 0xbdffe1023e479d4dU,
  0x3eb740c33d32d135U, 0xbeaaa2793dd4ff12U, 0x3ddadd9d80000000U, 0xbd86f8b23db63321U,
  0x3e726f1aU, 0xbdba33fc00000000U, 0x3e22094f80000000U, 0x3de5d4ed80000000U,
  0xbe43b6a23e48aa83U, 0x3db83ce63df830d1U, 0x800000003e067037U, 0x80000000bdc01d9dU,
  0xbe0a4965be15d61eU, 0x3d317fde3d870006U, 0x3d605b07U, 0xbe9c841cbdde33fbU,
  0x3d7b9fddU, 0xbe48bf32be24e96eU, 0x3dbc9b1e3d8fd6fcU, 0x3d449091be8027afU,
  0xbe756660be193739U, 0xbe2d4fdebec5ca23U, 0xbda331a63e27a4a5U, 0x3e3add7cbdcc115aU,
  0x3e5d1a5bbe30d653U, 0xbe2d4fbebe536740U, 0xbdc6dcecU, 0xbe34a5cd00000000U,
  0xbdd0b37cbe4a0f04U, 0xbd68ba4a80000000U, 0x3dcf9aaf00000000U, 0xbe6e0324be06672fU,
  0x3e93df283de4b0a8U, 0xbe38e23280000000U, 0xbd90f4103e02ccbbU, 0xbe239c4680000000U,
  0xbd9bd8a900000000U, 0xbe8056903da980dfU, 0x3e169af63e20cf9dU, 0x3e14b30780000000U,
  0xbe0c877abe0e4003U, 0x3e1d849280000000U, 0xbda5cdf43db6400aU, 0x3e95f0583e964975U,
  0xbe04d1debde4f672U, 0xbe804ca73d976424U, 0xbdbf9dc93e150651U, 0xbd593d3200000000U,
  0x3e022b7300000000U, 0x3e8c34b23e11c683U, 0x3e43f3cabd982b52U, 0xbd4c1fef3dce1c7dU,
  0x3e18649b3e210690U, 0x8000000080000000U, 0xbddbd7f4be0dc3f1U, 0x8000000000000000U,
  0x3e1909373d4b83f8U, 0x80000000bded7667U, 0x3ebc73b2bd891e73U, 0x3dcc21cfbdc0861bU,
  0xbd4e34deU, 0xbe69b3e700000000U, 0x80000000be3a49a6U, 0x3e12ac28bd84e7e0U,
  0x3d549c3080000000U, 0xbdc8de173e598d97U, 0x800000003d978c43U, 0xbeddc21bbe476fabU,
  0xbdaf1c40U, 0xbd78c3b43dbd9435U, 0x3eff4203bd519d9bU, 0xbe0430ba3d33df24U,
  0xbd86783480000000U, 0x3e3f778d00000000U, 0x800000003d999c79U, 0xbebbdede3dcc34f6U,
  0xbe418724be816496U, 0x3da03d493dba93cbU, 0xbde427ee3e29a224U, 0x8000000000000000U,
  0x3de14fe93e91cb58U, 0xbe98685bbe24b846U, 0x80000000bdd22cd7U, 0xbe4dba513e2405e9U,
  0x800000003e19d6d4U, 0x3e7463c2bd9ab487U, 0xbea3b769U, 0x80000000beb661e2U,
  0x3de71ebdbe8c9108U, 0xbdb1b97000000000U, 0x3d2e6b5bbe5805baU, 0xbe4db6b83d4f43c4U,
  0x80000000bda4265bU, 0x8000000000000000U, 0x80000000beeb1018U, 0x3d733518bd4c7d33U,
  0xbd35ef3a3d8ff514U, 0x8000000080000000U, 0xbda1c054U, 0xbe07e824be1aa8b9U,
  0x8000000000000000U, 0xbe5c690f3d90959fU, 0x3dce091eU, 0x3ee039c03e8bd634U,
  0xbd5b61863e4e9023U, 0x3d51b9d03e243200U, 0x80000000bdc456b8U, 0xbe8636d7U,
  0x3e38554300000000U, 0x80000000bdabebc0U, 0xbd45c28d3e163c28U, 0x3e852f1000000000U,
  0x3df089103e328678U, 0x80000000be0329ecU, 0xbe4328b2bd86f222U, 0x3dd13fa5be953465U,
  0x3d6dee653d8f70adU, 0xbe6ba511bea1937aU, 0xbe05fb803e60e3beU, 0xbe36c5cb3e055060U,
  0x3d3f7889be231e5eU, 0xbd6cb4663e324d01U, 0x800000003e91e46cU, 0x3dbd8f7dbd34b1c0U,
  0xbdc56fea3e396c93U, 0xbda8a38abe0a2c30U, 0xbea365f13e19495dU, 0xbe904d91be7d13d0U,
  0x3e1d3814be3dcb08U, 0x3e144d26U, 0xbe805063be0d0970U, 0xbd29a47abe3e3179U,
  0xbe341df9U, 0x80000000be2bd8a8U, 0x3e4ff04380000000U, 0xbd55294500000000U,
  0xbe7cf44dbd2a6a22U, 0x80000000be067c13U, 0x3d5685a03de2dcd0U, 0x3dfbbaa13e11baa7U,
  0x3d190ec800000000U, 0xbeb6e7ee3e836a3dU, 0x3d6c610200000000U, 0x3d4f8e7880000000U,
  0xbdee010abd3fdd61U, 0xbd81fef2bd2834adU, 0x3e235ca73e6136b0U, 0x3e2260f7U,
  0x3e68dc2e3e05f27aU, 0x3e929345be4983f2U, 0xbe5e54a63d9b584aU, 0x3deb3a5b3d1ba2f8U,
  0x3e09c6dc80000000U, 0x3e0737f23e421fcfU, 0x3e641aaa00000000U, 0x3e102c9d3dd373dfU,
  0xbe7a27eebe74e27cU, 0xbe5a76773e641b7bU, 0x3d6ed7fdbd8a4691U, 0xbd817ca43d4ad222U,
  0xbe018d33bd7c2370U, 0x3e4777173e973c99U, 0xbde9fb143ea548e4U, 0x3ed53dd2bdfd03d9U,
  0x80000000bd6d8abcU, 0xbe4ebf6d80000000U, 0xbe27af263e1658f8U, 0xbd9c1ca03e5745c1U,
  0x3dd2df49be3d484aU, 0x3da92a0dbe0c244aU, 0x3e0b561f80000000U, 0x3db1582a3dddbb15U,
  0xbe8f70803eb3d58bU, 0xbddc0049bdc9fc06U, 0x3d949ad03deaaca8U, 0xbdca97f63e08eca8U,
  0x3e70bf5f80000000U, 0xbe05643dbe02f985U, 0x3d8e82073d65666eU, 0xbe5baf85U,
  0xbd742cbfbd9ef1d2U, 0x3d57b3473e97e699U, 0x80000000bec2561aU, 0xbd769644bea34631U,
  0xbe564c7abe6d910aU, 0xbeab322480000000U, 0xbe459a283eadc876U, 0xbe9d837cbdb5d832U,
  0x3d93ececU, 0x0U, 0x80000000bea878e8U, 0x3d8233183e330842U,
  0x80000000U, 0x3e038c583e07bc95U, 0x3dc048c23d60ef11U, 0xbe10f0b13d4d4770U,
  0x3e898a8d80000000U, 0xbd780ef700000000U, 0xbe40df5900000000U, 0x3d645f4f00000000U,
  0x3dc2213a80000000U, 0xbde2190980000000U, 0xbe7e143a3e5d3ed2U, 0xbe5a0f1abe41310bU,
  0xbcfde2e380000000U, 0xbe4029533e01324aU, 0x3e635d2480000000U, 0x3cef6f883d97862dU,
  0x3d4632cabcf864b2U, 0x3de644e6bde90cbfU, 0x3d9297763ddbd611U, 0x3d2fc7ef3dc0a4a2U,
  0xbe16f8d4be850c5bU, 0xbe309e9200000000U, 0x3e148c42bcfabe19U, 0xbde1a0a93e0690cbU,
  0xbdc1556f3de93592U, 0x3e043a1a3da2126bU, 0x3e2c0c443d833d6eU, 0xbe219e3280000000U,
  0x3e4c9cd43e14d144U, 0x3dca5bf9be278963U, 0x3e1e7f0880000000U, 0x3cf58506be3678cdU,
  0xbd5947093d103ad6U, 0x3e4f4dba80000000U, 0x3cf5d68fU, 0x3dce9d55bd69b0fcU,
  0xbe64f82f3db43e84U, 0xbd508f73bda83605U, 0x3e5a5bda3e3b1dd2U, 0x3e9a4c24U,
  0xbdcd97c300000000U, 0x3e48aeff3dd2cb0bU, 0x3dc9c2123dbec056U, 0x3e18da53bd714898U,
  0x3e59014cU, 0xbe65d4f53e3a424aU, 0xbe5f80ac3e0b6f87U, 0x3eb0f8a2bd99d115U,
  0xbdb275103db89778U, 0x3e130fbdbe2008adU, 0xbe511dc8be3996e4U, 0x3e652a3bU,
  0x3df49826U, 0x3e3bfff53d9fc4a5U, 0xbdbfb28d3d2dfcb0U, 0xbd566fec3e74b243U,
  0x3d8dd0f83d834c8aU, 0xbdcc560c3dbfe9d5U, 0x3d6848503e863006U, 0xbdf99a433d4baba4U,
  0xbdada2a680000000U, 0x3e487dfd3e0b427aU, 0xbe6da0023ea915deU, 0x3e6c529800000000U,
  0xbdd9a3a2be5fde12U, 0x3d90048f3d938c64U, 0xbed9f2153ea47626U, 0x3f04f2a4be9c92a5U,
  0xbdd4e92900000000U, 0x80000000be86b065U, 0xbdfd710b3e85aad1U, 0x3db5c661bd91c45cU,
  0x80000000be657078U, 0x3eef1762U, 0x80000000U, 0x80000000bdd03808U,
  0xbdc24283be595bd2U, 0x800000003d8d8278U, 0xbd8857abbe5b62eaU, 0xbe1b01e93dc630e4U,
  0xbd82c5c23e79d5a0U, 0x800000003e5a4405U, 0xbd882c75be031160U, 0x3e1ec0d2be1d8ec5U,
  0x3e18b3463e20e70cU, 0xbe07ed5c3dff5e52U, 0xbdf33395U, 0x3ed5033dbe3c25b4U,
  0x3ed18762U, 0x3d51d219U, 0x3df04ce83e0b0720U, 0x3e1fcfcb80000000U,
  0x3da9098f00000000U, 0x3db089ee3e0c170dU, 0x3e26b4ffbe264f87U, 0xbecdd0553e23a841U,
  0xbea5790b3df511d1U, 0xbe473546be15d7afU, 0x3ea48b5300000000U, 0xbe8f12b3U,
  0x80000000beab93c2U, 0x3ea6afdaU, 0xbe80b25580000000U, 0x3ea885db3e62d363U,
  0x3e1f19e880000000U, 0xbe3448a73e70f456U, 0xbe2e40f9bd5baab2U, 0xbda06ceb00000000U,
  0xbb8e045cbda0d9a2U, 0xbdad89a4bd15fc7eU, 0xbd1934b0bca42ba8U, 0x3c5d806c3cc58e66U,
  0x3d21921cbdf12250U, 0x39eb6ef03cc1de4cU, 0xbc466b203d0fb6a1U, 0xbdced26ebdcf205aU,
  0xbd14190cbd662940U, 0x3cb86ca83b95985fU, 0x3c3e506cbcd21b07U, 0xbc5c9819bd33a6beU,
  0x3d8e47e93d90d918U, 0xbd44d5ae3d242201U, 0x3c9ad09e3d7921eeU, 0x3ca4f6423ae1ae44U,
  0xbc7146ed3cf08500U, 0xbcf25d113d29d0efU, 0xbcd5ad0cbd8b5558U, 0xbd2bd9b7bda67a27U,
  0x3c0de77a3d54d7cbU, 0xbc0ffae7bcc43381U, 0xbd026d153ce65753U, 0x3cadebbd3cfa2e0dU,
  0xbd55ad013d127f62U, 0xbd250641bd7a9106U, 0xbd5b7d5cbc1a5c5aU, 0xbd43ced43cbbbc26U,
  0xbda877583d2f3414U, 0xbcd3bc15bd419287U, 0xbd986a47bc3cc213U, 0xbbad24a23c32d8a1U,
  0x3b9c09c1U, 0x80000000U, 0xbe3b6bbe3eda82d6U, 0x3e2446693e48f1c3U,
  0x3e20d8323ea9b472U, 0x3e9dc1abbdbd578aU, 0x3ecbf910bd533dc9U, 0x3da33ac6be5ac691U,
  0xbed5ef863dcb6ea5U, 0xbe699cd8bdf77d17U, 0x3d3b8c103df82af7U, 0xbea5482ebe0212a1U,
  0xbe62ba4cbdfff9baU, 0xbe08a12cbe34b9e7U, 0xbe0b292abe2dd80bU, 0xbe850377bdd87531U,
  0x3d5ce6c6U, 0xbd7170b0bd86cc7cU, 0xbe46605c3e9cbd82U, 0x3e4862483e7888dcU,
  0xbe3a041d3e250576U, 0x80000000be8d9fe0U, 0x3dc310253d7923faU, 0xbe90fc6900000000U,
  0x3dde7ba33dfa38b9U, 0x800000003e7bdcc3U, 0x3e00d1953e811cd6U, 0x3e378ae13e2e92bbU,
  0xbe8c183e3db7bb09U, 0x3e761b6d3e81888dU, 0xbdfb0ef83e15f459U, 0x3de06d0d3dfe19e9U,
  0x3e67e4fc3ece3fe6U, 0x3e3fdfe8be787ca3U, 0x3db17ff83e065c46U, 0xbe7d94143dc4adbaU,
  0x3dc2782dbe83a015U, 0x3e24ed1e3e2371b3U, 0x3e460ba100000000U, 0x800000003e53b97eU,
  0x80000000be0aa7e3U, 0xbdab14f400000000U, 0xbe029166bde66fbfU, 0x3da99bfcbe78bbbdU,
  0x3e0e282bbe9fd592U, 0xbe7dd24600000000U, 0xbe195a2bbe7a276dU, 0x3d39e5f93e5c1652U,
  0xbe8792e6bea20321U, 0xbe67640fbd8640bbU, 0xbe724fa63e051056U, 0xbe3436e13d95091bU,
  0xbe159a383e298f07U, 0x3d9757223e484171U, 0xbe391d053e4a5a3fU, 0xbe61237ebe8106faU,
  0x80000000bddbe910U, 0xbe309d38be063771U, 0x3e39ea01be808e68U, 0xbe7597473dd186a4U,
  0xbe8024ecbe67c5a9U, 0xbe984b3480000000U, 0xbe54d6c63e75edebU, 0xbdd2d5d8U,
  0x3e7158f8be61e3c2U, 0x3eea1f96bdb2bc2bU, 0xbe85166a00000000U, 0xbe3dadf43d5b6da8U,
  0x3dbd57a13edfe748U, 0x3d931a773d3a3c65U, 0x3e9ff95f3eba7a2bU, 0xbdb8f17b3e5a7751U,
  0xbe4ef3c53dcd5facU, 0xbea2ca91bd8a6865U, 0xbe7a27153e050b5dU, 0xbed7f8d33e338242U,
  0x80000000U, 0x800000003e47f5b8U, 0x3e823aeb80000000U, 0xbebc2e2680000000U,
  0x3e28dd52bed1f2dcU, 0x800000003e61f781U, 0x80000000be1514e1U, 0x3e9fe35b3dfe19c0U,
  0xbebaa43c3eadda87U, 0x3ece7238be64ca2cU, 0x3e3c37113e40407fU, 0x3e14012d3ebd4d5aU,
  0x3dd6241a3ef02856U, 0x3e8616b400000000U, 0xbe824f2fbe98e89fU, 0x3ed052be3ecf508fU,
  0xbe5618e2be72f25bU, 0x3ed239383edaebf8U, 0xbe9427373d4e7577U, 0x3e1ae768U,
  0xbe95a9fc3de01dc2U, 0xbe321c4380000000U, 0x3e2524dfbdbfa01cU, 0x3e106b7f3e176091U,
  0xbd9fb8a5be74705fU, 0xbe11c7423e2903f2U, 0xbdf75979bdd625b5U, 0xbea47b2880000000U,
  0x3e835afcbe54feabU, 0x80000000be681d00U, 0x3e99aa9fbe9b6acfU, 0x3e56955aU,
  0x3e6afdcf3d9e7297U, 0x3e6bc30c3dc2b2c0U, 0xbe3d3e483d9e69b6U, 0x3eb9faa33e3fc0faU,
  0x3e84487c3e9f93b6U, 0xbe06c956bd52cc41U, 0x3dd3a218be6a1a36U, 0x3e45b8973e00aa22U,
  0x3e10e90c3e21ff71U, 0x3dc7d44d3ddff50dU, 0x3e87253e3e96fb92U, 0xbe41d5c6be69b879U,
  0xbd90c61b00000000U, 0xbe2c6da380000000U, 0xbe5b7a233e3cf3d0U, 0x3e19aab8bdcdce6eU,
  0x8000000080000000U, 0x3e2ac5cb00000000U, 0x3d902174be875a50U, 0x3dc959733e865837U,
  0xbe1fe3eebd5c2fcdU, 0x3e03d9bebe72f8cdU, 0xbe7972faU, 0xbdec821abde923eeU,
  0x3d4dba3ebd3d6a9bU, 0x3dd89c3bbe2a3bd2U, 0x3df63da5U, 0xbe8ef435bdd5cfb5U,
  0x3e3a1e503df0b117U, 0x3df54bcabe0353c0U, 0xbdb5cf5fbe83ec37U, 0xbdbb3be5be01f0a9U,
  0x800000003e05591eU, 0x3d603738bd73d93dU, 0xbd9b7936be3de17fU, 0x3dc980f9be0a52afU,
  0xbe2e63e93e32df75U, 0xbe3ba99e3e422e88U, 0xbe6a02e7be011741U, 0x8000000080000000U,
  0xbe52284400000000U, 0x3e5bea44bde851a8U, 0xbde935ed80000000U, 0xbe88ec19U,
  0x3e539598be4ca3a0U, 0x3e13b4383de517e2U, 0x3e7a91c53da47149U, 0xbe14ad173dbbf805U,
  0xbda3108fbe8ea4e7U, 0xbe805461be635f39U, 0x80000000be8cf0c4U, 0x3dfe0eec3e0e8e2fU,
  0x3d6d992a3e70e649U, 0x3d9c0bf400000000U, 0xbe2906c43e20c3e3U, 0xbe5dade03e7735b6U,
  0xbe4c8af33e9245f4U, 0x3ea69b0880000000U, 0x3ef8ed433efaa853U, 0x3ea4614ebe93ab12U,
  0xbe895fa33e0ab07bU, 0x80000000bdb0c884U, 0x3db5f8f13ebff48aU, 0xbe860bf1be43bd42U,
  0xbe9c7700be7d2934U, 0x3d80eef2bdb88172U, 0xbe8056423de3c34cU, 0xbd85e71bbe9a766dU,
  0x8000000080000000U, 0xbdf1ef4f3ec30840U, 0x3ecf6936be6fbfbcU, 0x3e4f9dbc3ed5de04U,
  0xbe19f1cf3ec54befU, 0x3ec783fcbdc74dc5U, 0x3e4a00e33eca6104U, 0xbdc978fe3ea03487U,
  0xbe62a1323ee92b31U, 0x3e1b08b300000000U, 0xbe077689U, 0x3ecc757d3e300fc5U,
  0xbda324d280000000U, 0x3f010c7f3f012d09U, 0xbeab412e80000000U, 0x0U,
  0xbe8b15453ee8912aU, 0xbd83422dbd779afaU, 0x3e5d0fc4be8380fdU, 0x3e45255bbdb6d62bU,
  0x3e3fe38fbe9aad4eU, 0x80000000bebb84afU, 0x3d54672fbebfe125U, 0xbe604e0f3e974fd7U,
  0x3de18018be62f848U, 0x3eb9acc8bdc32b3eU, 0x3e039902be315fbcU, 0x3ecd1e0eU,
  0x3e2b3ae23e5c7ccaU, 0x3e4f424c3e55520fU, 0x3ea48d6b80000000U, 0x3ecef43b3da3e227U,
  0x3ea3bac43daa0809U, 0x3e9e3c7dbea7d219U, 0xbe1752abbde7441eU, 0x80000000be7b8d69U,
  0xbeac81d1U, 0xbea473fa3dd7e9b0U, 0xbd5b4f9f3e965f03U, 0xbd8dc0a5be9ec2b5U,
  0xbe22a7cd3e1312f1U, 0xbea13daa80000000U, 0x3e8c66ad3e0c96ddU, 0x3e12abcdbddecc5dU,
  0x3ef3050c3e2b88abU, 0x3e248025be07a720U, 0xbdc4ef1dU, 0xbe5925313e8dd7c7U,
  0x3defef1f3e3c2a77U, 0xbe2b3bab3d833f47U, 0x3e72bdf4be852dddU, 0x3ec2473980000000U,
  0x80000000bf0bd431U, 0xbea7d115be2bb290U, 0x3db4335bbec11f9fU, 0x800000003eaf456cU,
  0x8000000080000000U, 0x3eb466c6be4a59c2U, 0x3eab3b71bdf4ffd4U, 0x3eb6c72500000000U,
  0x3eb7dee23e2b5e35U, 0x3eb0c30100000000U, 0x3e1721f43e805e9eU, 0xbe235be03e158080U,
  0x3ebdc1e43edc68e4U, 0x3d466df43e43a975U, 0x0U, 0xbe9feadebe6e7f43U,
  0x3eddd4b4bec2df26U, 0xbd7578cb3e89f7b4U, 0x3e2df3623d63ecc2U, 0x3e27f7f880000000U,
  0x3e105c0600000000U, 0xbed79dac3e67650fU, 0xbd67f46d3da9e49aU, 0xbde9c643be8161b4U,
  0xbd4642af3e7c7b22U, 0xbec20105U, 0x3eaa1c0f3dcb2ee4U, 0xbecbe714bd9e24a0U,
  0xbda58ea2bed4c720U, 0xbd2e0bb13dc7e34aU, 0xbc6235443d9a9c8fU, 0x3da1f91e00000000U,
  0x3cb9f46b3d20e219U, 0x3e61cbedbdd571e2U, 0x3e90823cbed92effU, 0xbe513a2abe7a309cU,
  0x3e14bc5e3eb0db26U, 0x3d96c80ebe15fc78U, 0x3e1879133d480793U, 0x3ea9638cbe7c1944U,
  0xbe0848f7bf0123f0U, 0x3e29e2453d7e5b12U, 0xbe086a9abd4ee3edU, 0xbde8dd733e5c7b2eU,
  0xbe5a425abe3038b8U, 0x3e8b9accbe5a8755U, 0xbe334599beadad11U, 0xbe21a8b7be88d3b1U,
  0xbdecf724bdde3114U, 0x3e005a7fbdb2b740U, 0xbdbdc9313ec722acU, 0x3da24e31bda1a5d0U,
  0xbef55180bed9d71cU, 0x3dd4129abec043e2U, 0x3e334725bf10a946U, 0xbeab30213e015ebfU,
  0x3e2eef9580000000U, 0xbe279f663d72df12U, 0x3dd42c313da3aaccU, 0xbdee3a48U,
  0xbdcb3d03bf0b0f32U, 0x3e0de0a6be7e6444U, 0x3ec31f34be25e982U, 0xbe746f2080000000U,
  0x3e66349d3d70500aU, 0x3d610dc7be49c469U, 0xbebb29f4bdc3a6f5U, 0x3d48f6f9be7e450eU,
  0xbd9be2b0bdbd629eU, 0x3eefed50U, 0xbd827d693f078b8eU, 0x3d7b315c3d741d8bU,
  0xbee34f51beb612e9U, 0x3e3e3bd100000000U, 0x3dce6c45U, 0xbda69f32be5183a2U,
  0xbd49671abea6a1ecU, 0xbe192e173ec71a76U, 0xbe63d28580000000U, 0x3d8e50dc3e58028aU,
  0xbe75a91fbd958b15U, 0x3e95a9a7bec6ae48U, 0x3e348468bf15ed78U, 0xbee391fbbdd58f83U,
  0x3d9fcae83e5b5b02U, 0xbe40c73a00000000U, 0xbedaeadf3ea6b90dU, 0x3e72d25ebe726f36U,
  0xbe8268f2befa8fdeU, 0x3e336de23e71e0a6U, 0xbd41948080000000U, 0xbe9ad57ebe2d9b1cU,
  0xbe870f8dbec11d29U, 0xbda8eaebU, 0x3e8c72b0be876d5aU, 0xbe2cf22b00000000U,
  0x3e8e5e5a3e40ef6cU, 0xbe38179cbd81934cU, 0xbd58bd8b3e3c846aU, 0x3ea4e4583e552382U,
  0xbeb5d092be1123a5U, 0x3dd076d5bebd22d1U, 0x3e40d0e0beb7d11bU, 0xbedb307e3d80a099U,
  0x3d7a79863dd4feb2U, 0xbe176f6eU, 0xbea58fb500000000U, 0xbe0c40c73e77b744U,
  0xbe9152f2be8f0bb2U, 0xbe65d676be966f2fU, 0x80000000bf28c160U, 0xbecf30303e32f44eU,
  0x3eb7be173df78591U, 0xbe4d7890beaa629fU, 0x3ea31cbfbe5dec9aU, 0xbed6ff6bbe025106U,
  0x3d464c7a3ddc99cdU, 0x80000000be9878a3U, 0xbda3a365bf095eb0U, 0xbe518ccd3e648bf7U,
  0x3e0fabfb3dfb2f9dU, 0x3e468464be9bea45U, 0x3de94ca6beba79d7U, 0xbec78d483e76c75aU,
  0x3ea4a418bdab65d9U, 0xbd593f0fbe22fc38U, 0x3e85ba8fbee52437U, 0xbf1fb6373ddf0bbcU,
  0x3eb0d8d6bd4e02f9U, 0xbed4e001U, 0x3ede4272bf040456U, 0xbedbf586be2a7d3eU,
  0x3e5820143da8bc46U, 0x0U, 0x3dc61486bf03d23bU, 0xbecf2c033e04a321U,
  0x80000000U, 0xbddd5456bf173ae1U, 0xbd9ec73fbf0976c4U, 0xbedb2b753df28552U,
  0x3e28e6263eeb4080U, 0x3e02b83700000000U, 0xbeb0246d00000000U, 0x800000003e0900d8U,
  0xbde89960be5442f5U, 0xbe1a055cbeea9395U, 0x3e969b83bea00b81U, 0xbf15bb81bd39d20aU,
  0x3f0a73103da54ba1U, 0x3e141b3bbeea5c2fU, 0x3dcf690ebf11dfbaU, 0xbf0aaa463e25a4daU,
  0x3e95cdd33e112e91U, 0xbd38bcf2be821c1dU, 0x3e1c4c19bf0af6c8U, 0xbead3844be2c7414U,
  0x3ebcba163dd8710cU, 0x3df7f05180000000U, 0xbe472a7cbf1ca1ecU, 0xbe0079773dbe69e3U,
  0x3e1748d600000000U, 0xbe4e938c3e6d6ce2U, 0x0U, 0xbe642ad33e391d64U,
  0xbd82b0d9bd656156U, 0xbd3bce593f075d65U, 0xbeef4fb53ed17062U, 0x3dc3a959be5567adU,
  0xbe92d85bbf1004aeU, 0xbe8494cfbee876c1U, 0x80000000bee25373U, 0xbf2586323d67acebU,
  0x3eebbbd03e970d66U, 0x3e54ba1b00000000U, 0xbdb93da2be20a7a9U, 0x3d678b55bda0c272U,
  0xbe43f92fbeef10ceU, 0xbe57a9ab00000000U, 0xbd83944d3ea831c3U, 0xbe1fa4423e1caa8fU,
  0xbe5092bebdd0a943U, 0x3dcfbb76U, 0xbe3be9ed3de5d280U, 0x3e861db7be09ac33U,
  0xbf14a428bd763b6fU, 0xbe8a328c3de0e3e3U, 0xbe7dec5dbe4e3738U, 0x8000000000000000U,
  0xbe5ebeb480000000U, 0xbe8531acbedddd22U, 0x3e707746beb808e8U, 0xbd9c4762be50dbe0U,
  0x3ec74514be03415dU, 0x3e53c26dbf14b757U, 0xbe15f690bec57cdaU, 0xbec76f1f00000000U,
  0x3e39f0a13dd51d23U, 0x3d78105ebe2d66feU, 0xbe4925823e99a310U, 0x3da70e02be7c0470U,
  0xbf0db41dbef0d4b0U, 0xbe4644183e9f7edeU, 0x3e1b55faU, 0xbe5a2fcd3de7a5ebU,
  0xbe2ccfa33dd555f9U, 0xbdee259abeec9874U, 0x3e92c305beebbdc8U, 0xbea775683da7dfa0U,
  0x3e7d015d3eb1fc3eU, 0xbe35720d00000000U, 0x3da96742be1c034cU, 0x3e3c9cb6be2668bfU,
  0xbec81fbeU, 0x3e375a21be24e1ceU, 0x3dc2d360be5ef1e5U, 0xbf1bea78bda4c0daU,
  0x3e0a76913de1de11U, 0x80000000U, 0xbe5c3f873df29858U, 0xbdd2c3f63d924c77U,
  0xbe829bafbeddf1c0U, 0xbe899670bedeed04U, 0x3e9eb10ebf0aceacU, 0xbe8dadfcbe67e791U,
  0x3e69d49d3e4e65f5U, 0xbf16acf1U, 0x3e9a9b9abf0eaa1bU, 0xbedd89a7be318cf1U,
  0x3e1a8c0c3d8a13b7U, 0x3e50237b3ea3554fU, 0xbd4c843e3d774ebcU, 0x800000003e78f3c8U,
  0xbe8e4212bda80b0eU, 0x3e8c5502be699ecbU, 0xbe14781fbe98ac58U, 0xbe1b1aaabe8c9528U,
  0x3dbd302f3e6fe62bU, 0xbe15be12bf11005cU, 0x3e31b59abef727f9U, 0xbf07d3593e28b078U,
  0x3e59d85cU, 0xbe419bad3e3fc239U, 0x3e87e545U, 0x3e68a1ebbe022e6eU,
  0xbf09ff36be6a9b0dU, 0xbe7b010a3e394791U, 0xbda457313e89f453U, 0xbdb2aff9bddfd87fU,
  0xbf186222be8f07c4U, 0xbe08fa96bd47563cU, 0x3da89db13e0f7ea3U, 0x3e510339bd43d1faU,
  0xbeb62c6200000000U, 0x3e8344883d84058aU, 0x3e023e48bea443a3U, 0xbdebb37f3da5468bU,
  0x800000003e7d4405U, 0x80000000bd9d5546U, 0xbd701de1U, 0x3e8c036dbe8149b8U,
  0xbe0df3efbe9ab57fU, 0x3e8586b0U, 0xbe6d7668bdb7b1ecU, 0xbe6638903e0b867fU,
  0xbda1fc6dbeef30adU, 0x800000003e840f71U, 0xbe89ec963ec1ef2aU, 0xbd905507be491e5dU,
  0xbe8f9120beeea896U, 0x3e821adabef34c86U, 0x3e87d491beb0a6abU, 0xbe9e30183e31ea7bU,
  0x3ea736c83db64918U, 0x3de692793e94eecdU, 0xbec112f53db5937eU, 0xbddb8c7f3e4f0c53U,
  0xbf05e8d9bde53149U, 0x3d86408380000000U, 0xbda9a4dfbe369c49U, 0xbe204efd3da95fdcU,
  0xbe7d36febe9588dbU, 0xbe760cdc00000000U, 0x3d7c74dbbdf128e2U, 0x3e6389813e37a385U,
  0xbd80f79cbe194d93U, 0xbe1ce17ebf0f93d6U, 0x3e2c2189bf28cc62U, 0xbe9ea7c7be291aa1U,
  0x3ea66bb03e45a791U, 0x3c01bff3bcc130cdU, 0x3bc341e53c8a9933U, 0xbcd3da80bd15576fU,
  0xbcaca3e1bc14a4eeU, 0xbd745d32bd0e3e03U, 0xbca4a546bc30b467U, 0xbd45a7713d0a0562U,
  0xbcc93f0abd6f45ebU, 0xbc824d01bd1c00c4U, 0x3d989918bca9d79bU, 0x3da31773bcc76d26U,
  0xbcd4eba1bcbee48eU, 0x3ddf15123d752a81U, 0xbd56c4793d092bffU, 0x3ce2ab473beceefaU,
  0x3d3b9dfc3d011bdeU, 0xbdca129f3d25ba48U, 0xbd4d8398bd277ff8U, 0xbd0d4b5cbd9d7959U,
  0xbce7f4dbbd4c3d9cU, 0xbca0652e3dbd4887U, 0xbd1a3a34bd14cb6aU, 0x3c22d70ebd124932U,
  0xbc30e6203c5e1d07U, 0xbcec3660bb54091bU, 0xbd482ba5bd87a44cU, 0xbd9a1885bd1d8d35U,
  0x3cd4f1e1bd1f4a1aU, 0xbd63dba8bcde9a85U, 0x3bc686e1bc49f87bU, 0xbce9d46bbd248fc9U,
  0xbcf0cb6cbbc461a3U, 0x3e523a38U, 0xbe7158f03e642976U, 0xbe61ee903ddbd3dfU,
  0x800000003e1f4ac3U, 0xbdec42c03e4119f8U, 0x3e94865dbe44684fU, 0xbd905706be2f18a8U,
  0x3ddecf3b3e6d8768U, 0xbe07bca9bdf6b9e2U, 0xbe84d6273dc1a21dU, 0xbdbcae48be72ae92U,
  0xbe63a2f7be11acb7U, 0xbe5da4fa3d45ad12U, 0x3da11c753e484ed7U, 0xbe753b7000000000U,
  0x3e0819febe231661U, 0xbd9d764d3e650d31U, 0x3e04718abeaedf98U, 0x3e9e67963d868e4eU,
  0x800000003e7a5748U, 0x3e1f5009bd57a07cU, 0xbd9374113dff18d2U, 0xbe97abf53e8a1280U,
  0xbe905766bdb0c9c0U, 0xbdb3bc66be95d7fcU, 0xbe20d568be7de7bfU, 0x3e650b763df05d0fU,
  0xbe93b6b83db9b6a3U, 0x3e7b54843e26d344U, 0xbe88196c3de36475U, 0x3e25b4f2bdeeda42U,
  0x80000000bd575da1U, 0xbe2d11e63ea5e43bU, 0x3e5cc1fbbd60a9e1U, 0x3e231bffbdd39ed5U,
  0x3de4b49abd733bb1U, 0xbe8e1cb5bdd9be45U, 0x3dc1df8ebe8bc2d5U, 0xbe4f9bfb3e2a2d9aU,
  0x3ea0917cbe1f1786U, 0x3e7b91d7be716f50U, 0x3e181387be42c88eU, 0x3e45f23200000000U,
  0x3e1dda4b3e7e89e8U, 0x3ea290ddU, 0x3ebec1feU, 0x3e711286U,
  0x3eb3a2ed3e7970a4U, 0xbe487ebb3db04f6bU, 0xbe07e74bbe0863d0U, 0x3da9867abe06dcd9U,
  0x3e297017be6bfb9dU, 0xbe3475ab3e9dd8b0U, 0x3e6b489d00000000U, 0x800000003e5f51d7U,
  0xbd885d84bea2d2adU, 0xbe3918f280000000U, 0x3e8b1b7800000000U, 0xbe08a8f3bd74dacfU,
  0xbd67941700000000U, 0xbe7e813c3d4f48e9U, 0x80000000bdb6121bU, 0xbe7bca6cbe76acc3U,
  0x3e62f9dfbe4d5e51U, 0x3d02504dbd025077U,
};


ai_handle g_network_4_weights_table[1 + 2] = {
  AI_HANDLE_PTR(AI_MAGIC_MARKER),
  AI_HANDLE_PTR(s_network_4_weights_array_u64),
  AI_HANDLE_PTR(AI_MAGIC_MARKER),
};

