/**
  ******************************************************************************
  * @file    network_3_data_params.c
  * @author  AST Embedded Analytics Research Platform
  * @date    2026-04-22T20:37:10+0700
  * @brief   AI Tool Automatic Code Generator for Embedded NN computing
  ******************************************************************************
  * Copyright (c) 2026 STMicroelectronics.
  * All rights reserved.
  *
  * This software is licensed under terms that can be found in the LICENSE file
  * in the root directory of this software component.
  * If no LICENSE file comes with this software, it is provided AS-IS.
  ******************************************************************************
  */

#include "network_3_data_params.h"


/**  Activations Section  ****************************************************/
ai_handle g_network_3_activations_table[1 + 2] = {
  AI_HANDLE_PTR(AI_MAGIC_MARKER),
  AI_HANDLE_PTR(NULL),
  AI_HANDLE_PTR(AI_MAGIC_MARKER),
};




/**  Weights Section  ********************************************************/
AI_ALIGNED(32)
const ai_u64 s_network_3_weights_array_u64[3878] = {
  0xbdcb26d53e73c832U, 0x3edf778400000000U, 0x3e2285773e4b26d5U, 0xbedf778400000000U,
  0xbdcb26d500000000U, 0x3e22857700000000U, 0x3ed54f2cU, 0xbdcb26d53e36d626U,
  0xbec0fe7dbeacadceU, 0xbf1d714b00000000U, 0xbfaa23b9U, 0x3f5f7784bf9348f4U,
  0x3f73c832U, 0xbefdf08aU, 0x3eacadce3e228577U, 0x3ea2857700000000U,
  0xbe840c713e228577U, 0xbecb26d5be8e34c8U, 0xbed54f2cbef3c832U, 0xbf31c1fabe8e34c8U,
  0x3e4b26d5U, 0xbf73c832bf0e34c8U, 0xbf228577bf554f2cU, 0x3f5a63583faa23b9U,
  0x3e985d20U, 0xbfc89cbf3eacadceU, 0x4021406c3f5f7784U, 0x3ee99fdbbf503b00U,
  0xc00e34c8U, 0xbf040c7100000000U, 0x400cefbdc019a22aU, 0x3df3c8323f648bafU,
  0xbd73c83200000000U, 0x3ec0fe7dbdf3c832U, 0xbdf3c8323ec0fe7dU, 0xbe5f7784U,
  0x3e4b3fce3e5741a1U, 0x3e39c24d3e6a1336U, 0xbeece5aa3f346b80U, 0x3e1671ae3ed71ec7U,
  0x4011e92bU, 0x3f7fa5383f678724U, 0x3fca9640U, 0xc0192564U,
  0x4006530d400d165aU, 0x0U, 0x409b382600000000U, 0x402d211640bd8bf3U,
  0xc042062f00000000U, 0xbe6ce4dc00000000U, 0xbf9cb20c3e76c3baU, 0x3dd9271fU,
  0x3e6ce4dc00000000U, 0xbf2a9d7900000000U, 0xbfcd8381bf973a20U, 0x3fb63f7c40763a89U,
  0xbfaa9d793f60e6daU, 0xc0363f7c3f1b1acbU, 0x3fd010113fed5e0cU, 0x0U,
  0x3fca33acbf1e3eb3U, 0xc03a1595c027094bU, 0x3e29ca57bf2fd3e3U, 0x3e4bbf9cbf0ee82cU,
  0xbf17657dbf18cfb5U, 0xbf33b1e1U, 0xbe735dc2be29ca57U, 0x4013d8123ec392bdU,
  0x3fcf36e7U, 0xbecce2deU, 0x3f0bb1f5bf3eeaacU, 0x3fb688ce3f27a259U,
  0xc013a35b3fd160b0U, 0xbfbbe72e3fdc1d71U, 0xc05160b03fc1458fU, 0xc008e69ac0aa7475U,
  0xc0065390bfb19efcU, 0x3ef5a18a3ec25f98U, 0x3ef721d53f435c8fU, 0x3fd67e43bf903f42U,
  0xbea1dd9f3dd2be52U, 0x3eb5452e3f01c414U, 0xbf09cfbc3f556162U, 0xbe9e4057bd91c25bU,
  0xbe1b641ebe822a42U, 0xbe9b08a43edcb44aU, 0xbe72c01f3ed70f81U, 0xbe6e9825bf08a635U,
  0xbe21dd9fbd885d08U, 0xbe85914abeb5e06cU, 0x3e3b1ec300000000U, 0xbe3de6cfbe5aa388U,
  0x3e8543a5U, 0x3e0a567b00000000U, 0xbdde8572bf214ba1U, 0x3eb429be3f08a635U,
  0xbe2ed0a2bf1c820cU, 0x3ecf81b83e37eb93U, 0x3eae7a163efc062bU, 0x3e5ffc8b3dc86b3dU,
  0x3dc23d26bf25ce36U, 0xbe64f912be8f0c8fU, 0x3f04c111bec99e89U, 0xbdcc8269be3f4f17U,
  0xbe017e193e022a42U, 0xbec5f758be952e02U, 0x3ec2b4c43e8669b1U, 0xbe9e40573d7f141fU,
  0x0U, 0x3e7cd3043e9d5a9dU, 0x3ed1e0c500000000U, 0x3e9e4057bdff141fU,
  0xbe1af55bU, 0x3ea6f59d3e8f0c8fU, 0x3d361017bf107e6bU, 0x3d3632f2U,
  0xbe87f79a3e97dbf8U, 0x3eae1d663db3d546U, 0x3dde8572bf3ddbb0U, 0x3e810924bec3dd2aU,
  0xbf11addc3d14c294U, 0xbdbecf8fbe3c01e0U, 0x3e68a2c83ebf89cfU, 0xbe6cdbd4U,
  0xbf48b6a73f44cc14U, 0x3ee75baabe37eb93U, 0xbf2091bfbde48079U, 0x3d9214023f909ed6U,
  0xbf4d91c83f009d90U, 0x3eabbacebe795066U, 0x3ee10cc73eb8d153U, 0x3eca13253ee3bfaeU,
  0xbf203f3fbda12821U, 0xbec13227bdcc5b15U, 0x3eff64cbbeb218d7U, 0x3db632f2U,
  0xbea51a603e4658c6U, 0xbf1774c03e37eb93U, 0x3e402d6e3f13daa9U, 0xbdc2c5583d5aa388U,
  0x3dcf30283e8b766bU, 0x3e18a60cbe02c9a7U, 0xbde8a2c8bea14ba1U, 0x3f1a9971bd5aa388U,
  0xbb90f2ebbd5358eeU, 0x3d616b22bd6d67efU, 0x3c3c2800bce3b0c7U, 0xbd420141bcebc076U,
  0xbbc6d3303d36ce64U, 0xbde08bef3d217065U, 0xbcf599f6bcf647ecU, 0xbde052cc3d81ca93U,
  0xbeba72aa00000000U, 0x3efe3f45bf30472cU, 0xbf574339bf30472cU, 0x3eb70ed63e9f5406U,
  0x3ea6564b00000000U, 0x3ef981713f700dfeU, 0xbeb5756abf4c2417U, 0x3f20aaa03edb4335U,
  0x3ecc24173eaa1e13U, 0x3dfed77b3ebf219cU, 0x3e1ab9af00000000U, 0x3eaaa7273f107c75U,
  0xbeb3c1223e5efc8cU, 0x0U, 0x3ea901faU, 0xbf99506c00000000U,
  0x3ea42dcebf242dceU, 0x0U, 0xbecfe36500000000U, 0xbf353c653ec53a32U,
  0xbf253e98bfa93e0cU, 0x3ee535cbU, 0xbf4d3918U, 0xbf1336aebf3cbc41U,
  0x3f352f9aU, 0xbfefb1a4U, 0x0U, 0xbebf780abeb19827U,
  0x3ef431363f06954eU, 0xbe3198273f3034f7U, 0x3e3724e8U, 0xbf0b9f6800000000U,
  0xbf1a950f3fef5a6aU, 0x401e52793fc77603U, 0x3f427976U, 0xbf516f1d00000000U,
  0xbf9bfb1dbf6bd04cU, 0xbf04a52b3f9bfb1dU, 0x0U, 0x0U,
  0x3f8d3e18U, 0xbf075716U, 0xbed530d4bec936b7U, 0xbf181ba5U,
  0x0U, 0x3fa6cacfbfb299bcU, 0x0U, 0x3fbb74edbf168e4aU,
  0xbf3ceecb00000000U, 0xbf4173dc3eec2a7eU, 0x3e97ba3e00000000U, 0x3ea31b69U,
  0xbe5c01413f70de10U, 0xbe546b243ee3975eU, 0xbec65cd1bfc4d017U, 0x3f14c59d00000000U,
  0xbec029ea3f05465cU, 0x3ed2c29e3ee55b52U, 0x3f3519f93f39f704U, 0xc015f982c033afc5U,
  0x0U, 0xbfdcb7a700000000U, 0xbf8aa7e3U, 0xbf873b45bf04097eU,
  0xbf1b7688beff8e3eU, 0xbeb725f1be4c71ccU, 0x3ed4f689bf1512faU, 0x3ef35c7f00000000U,
  0x3f4b55b43e867d38U, 0xbf0b4ad6bf04e359U, 0xbf134c32be6cf502U, 0xbf1ce76dU,
  0xbea0677e3edb7612U, 0x3f28cbfdbf08c690U, 0x3f346fe73fa63115U, 0xbfa99a94bee1f0f0U,
  0x3f16a7b8bd5c4ed2U, 0xbe724cdebed1dbb8U, 0x3f391241bdeb9cceU, 0x3d6067083f89aef6U,
  0xbddfe54500000000U, 0xbf01531900000000U, 0xbe7cbecb3e563d1bU, 0x3ecdd4933ef77046U,
  0x3dedcb5aU, 0x3e1335e53e0f268aU, 0xbef31f6abe94b081U, 0x3de1440800000000U,
  0x3d99ed9f3e71c332U, 0x3ee210413e13f731U, 0xbf0e74d9bea46a6eU, 0xbe2b867abf102666U,
  0xbe4bf111bec7f6a3U, 0xbe4bd47800000000U, 0x3f15de9bU, 0x3ef4daa4be8b58a0U,
  0x3e7be1ee3e897908U, 0x3d4383ae3da345bbU, 0xbd5b3892U, 0xbe9a5f6e3d7e3fb2U,
  0xbec05aa53e6863d3U, 0x3d627a4d3e0f268aU, 0x3d4018d2beaea6b0U, 0xbdcdad6bbef04086U,
  0xbe66e46f3e4bd6c6U, 0xbe98bee03f04a8a8U, 0x3e89dc6fbe3d53c4U, 0xbedc3298U,
  0x3e9d975f3e8c83cdU, 0x3eb259e9bead4999U, 0x3e8411103efee570U, 0xbf02ff3700000000U,
  0xbe12ee753e509453U, 0x3d9ac83f3ec46fe5U, 0x3d8b8117U, 0x3d7b92093e1148f8U,
  0x3e7a4ac400000000U, 0xbdcbd478be25c0d5U, 0xbdc018d2bda9ee4aU, 0xbdb04b80bde6a458U,
  0x3e20eccabd84bb7bU, 0x3de07fe1U, 0x3eca323c3d335cd5U, 0xbee78f2500000000U,
  0x3e42abed3e62fc4bU, 0xbe9bb41500000000U, 0x3e4c1a5fbdbccfe1U, 0xbed36bfbU,
  0xbeab6b893ea38b93U, 0xbe22edbbbda345bbU, 0x3e3c68fe3ddb3892U, 0x3e481ce400000000U,
  0x3e2b7f14bec542dfU, 0xbe960aa0bea1fc73U, 0x3e592243U, 0xbf0b911bbf13c148U,
  0xbdfbe1ee3efffbdbU, 0x0U, 0x3e20d68100000000U, 0x3df022ac3e8a798cU,
  0x3ed2c5b3U, 0xbe7ec9973df1187cU, 0x3e90129e3e5469ddU, 0xbd6b0f563e536bfbU,
  0x3ea46c5f3ed2f31aU, 0x3db338b43e2d7a17U, 0x3ddc93e400000000U, 0xbf2460e0bd883468U,
  0xbec2abed00000000U, 0x3ee27a4d3e801502U, 0x3f3e98a000000000U, 0x3eb7a3fb3e8dbfabU,
  0x3e74e2c3be212cccU, 0x3db338b4be659a0fU, 0xbe6ef58dbdf91d60U, 0xbe481ce43f0cbeb0U,
  0x3e7eed553e871c45U, 0x3e2f852f00000000U, 0xbe161364be1bc51aU, 0xbe8dbfabU,
  0x3d97b1b1U, 0x3eb74b7300000000U, 0xbef82661bea46a6eU, 0x3e1148f8U,
  0xbe98f4cd3ee5b00fU, 0xbe3ad819bef8a140U, 0x3e2815b8be62930eU, 0xbe219a8b00000000U,
  0xbda7ebf43ea5ea5aU, 0x3e98bee03eba3b89U, 0x3e0e74d93eea2af9U, 0x3e8380b3bec33a0dU,
  0x3ea6dc82bea4d5b0U, 0x3ead4999U, 0xbe4c1a5f3e12544eU, 0x3e8b911b3e01bc71U,
  0x3e2eeb1e3e3d9e1dU, 0xbe9b9e76U, 0xbf11e7283ebad608U, 0x3f17839700000000U,
  0xbe37c00cU, 0x3ec7a847U, 0x3eaea6b0U, 0xbd6b0f56bea5c61fU,
  0x3eab6b89be25ea5aU, 0x3efc8a15be659a0fU, 0x3efa72963e0685a0U, 0x3d47c455U,
  0xbea48b393d81b4bdU, 0xbe18df5abe8b6228U, 0xbdc018d2bd4fb178U, 0xbe304b8000000000U,
  0x3ed56686bdc71938U, 0x3e8e9004be8735bfU, 0xbdeef58d00000000U, 0xbe2b867abe433a0dU,
  0xbe9d975f3dedcb5aU, 0xbd7920223dd2f56cU, 0xbeb41745bdfee570U, 0xbdcdad6b3f188f5fU,
  0x3ec3e89c3e5a0f6eU, 0xbd6419a03ebf55b7U, 0xbe2e9fc0bdbd53c4U, 0xbec2653600000000U,
  0xbdfa4ac43e278974U, 0x3e1e88d03ea98537U, 0x3dfc2094bdec03d9U, 0xbd5778babdb69770U,
  0x3da7ebf4be1c6f3fU, 0xbdc1e2ceU, 0xbee810ee3e652f82U, 0x3e093862be27fc5fU,
  0x3e81c7f43d428f1cU, 0xbda9dbba3e2d4999U, 0xbe5469ddU, 0xbd304b80bdb69770U,
  0x3eb26ab33dd09453U, 0xbdc383aebe46fcfcU, 0x3e57fb7abddb3892U, 0x3e0380b3be55632cU,
  0xbd01c7f4be01b4bdU, 0xbd4bd478bd71187cU, 0x3e4619993e08e383U, 0x3ceb0f56be0b58a0U,
  0xbda7ebf4be97b1b1U, 0xbeab1338bee07fe1U, 0xbdb35cd5U, 0xbeb13e293e8f03d4U,
  0xbea6dc8200000000U, 0xbe90612b3e0f268aU, 0xbe8110ad3ef0bc3fU, 0x3de1440800000000U,
  0x3edfe545bf16824eU, 0x3de07fe1U, 0x3ef5da2cbe8407e4U, 0x3ea8aaa3bdec1693U,
  0x3e9b46163e9f6e28U, 0xbdf920223e9e3811U, 0x3e29ee4aU, 0x0U,
  0xbf5e257abec4ba72U, 0x3e846128be37ae72U, 0x3de5c4b93ea965e5U, 0xbf3587ecbe15d340U,
  0xbe066a85bf2221ecU, 0x3dd7276300000000U, 0x3e521b263e4af912U, 0xbe9f27b800000000U,
  0x0U, 0x3e3b5e31be5b65b3U, 0x3e57fb7a3e9cf13aU, 0x3ee54727U,
  0xbe3021a63e2221ecU, 0xbe1e88d03eb4d25dU, 0xbda9ee4aU, 0xbea19a8bbd2cfb42U,
  0xbe7680c0U, 0xbe96b5803f1f7219U, 0xbdf82661be1f6ef6U, 0xbef9b56aU,
  0x3d9d975fbd6dcb5aU, 0xbe3ad81900000000U, 0xbe1c142b3e674b74U, 0xbf1b7b7abe66a458U,
  0x3e12ee7500000000U, 0x3dcc172aU, 0xbddc93e43f1e3018U, 0x0U,
  0x3f1329973e582d3bU, 0x3f33c447bf6f364bU, 0x3e9f148e3dbccfe1U, 0x3e79c04bbd99c2e5U,
  0x3db5ea48be1c6f3fU, 0xbd12a2c2bed3be6fU, 0xbd130d43bd818a28U, 0xbd20171dbe678c4bU,
  0xbe14523b3d8c83cdU, 0x3db52ea43d96af4eU, 0xbda815b8be08e383U, 0x3e7eaacbU,
  0x3f262c29beaf6575U, 0x3e9edafd00000000U, 0xbe854405be0b8117U, 0xbed0b06abe1ee7cfU,
  0xbd8c83cdU, 0xbf1335e5be801502U, 0x3eba180b00000000U, 0x3d7ea5f23dd36bfbU,
  0x3e66e46fbd97b1b1U, 0x3e6006e1be6fce6bU, 0xbe97a5adbe5141a3U, 0xbd94a7c000000000U,
  0xbe2b7f14bdd82d3bU, 0xbec62b0300000000U, 0x3ec018d2bed6c610U, 0xbefea5f2be4501b5U,
  0xbefbe1ee3e825cb4U, 0xbd22edbb00000000U, 0x3e5b3892U, 0xbd36f5d8bde30204U,
  0xbe631deabe9f6e28U, 0x3d7920223e16af4eU, 0x3dc018d23f0a119dU, 0x3dcdad6bbd536bfbU,
  0xbdede3993d8e3696U, 0xbec383ae3f21ff30U, 0x3de5c4b93dd141a3U, 0x3e865c8b00000000U,
  0xbe5093a3be91eb55U, 0xbe7376acbee98fb8U, 0xbf2e167ebec89cdfU, 0xbe8438a03eaf624dU,
  0xbe2eeb1e3e2aa7e7U, 0xbe9cd19e3ebcc8a0U, 0xbeba1cc9beb0df19U, 0x3e093862bed9ed74U,
  0x3ea92dcb00000000U, 0xbe40818e3e2d4999U, 0x3e0a11d7be7ee570U, 0xbe1cb4e4beb8fe7cU,
  0xbe04f02100000000U, 0x3e3338b400000000U, 0x3eca323cbe791d60U, 0xbf1339d4bde30204U,
  0xbe18f4cdbf2b971aU, 0x3e16af4eU, 0xbe3a180bbe7ee570U, 0x3ed778babe40339eU,
  0x3e92ee7500000000U, 0xbeb5215bU, 0xbde5c4b9bd335cd5U, 0x3d64b34ebec0f4e9U,
  0x3dd53635bd582d3bU, 0xbe07e2fbbdb4d25dU, 0xbe4619993e970cb4U, 0x3dcdad6bbe40339eU,
  0x3da254d1bdb541a4U, 0xbdbcf1a6be091740U, 0xbe204847bdc9fb36U, 0xbde3d10f3e1bc821U,
  0xbe71c491bd8c9289U, 0xbe1368d0be168059U, 0xbdc1d3bdbd1fd634U, 0xbc02764bbdc8f443U,
  0x3cb1d9f23eab65d3U, 0xbd4c271abc58b877U, 0xbddff6c43db993c0U, 0x3c072f5e3e15f3adU,
  0xbd800e483e0e23b4U, 0x3ddc28293da1c6f6U, 0x3de606fbbe309b50U, 0x3e05448d3dbd3a75U,
  0x3f0092cf00000000U, 0x3f39f8ec3ef7f690U, 0xbed33a55U, 0xbf39f8ecbf91cb0bU,
  0xbf534d94bee100ebU, 0xbe33b0d7be5b9f3fU, 0xbe1fb9a200000000U, 0x0U,
  0x3e1fb9a2be26615eU, 0xbeef739e3ed5cbcdU, 0x3f0f3e4ebf804714U, 0xbf0d1afd00000000U,
  0xbf87c2b100000000U, 0x3e903a3600000000U, 0xbe83dd733ec1ad41U, 0x3ea8f3bb3f82d5b8U,
  0x3eef0160U, 0x3e5e85b200000000U, 0x3f15a8343f3396a5U, 0x3f3e108000000000U,
  0x3eb99322U, 0x3f20220fbea49f6dU, 0x0U, 0xbf2be8e100000000U,
  0x3ef7deaabecfe40bU, 0xbf0bed2fbf73df34U, 0x3ffddddc3f4fe40bU, 0xbf70dd893f95f354U,
  0xbf8c813aU, 0xbf522ab6U, 0x0U, 0xbf90c8c93f70dd89U,
  0xbf11eca2U, 0xbf4d34c4bf6401bdU, 0x3e91eca200000000U, 0x3f8e811600000000U,
  0x3ef4fad400000000U, 0xbe0ccb01U, 0xbe34370c00000000U, 0xbf32ce9ebe872949U,
  0xbf34e125befd6d69U, 0x3fa8e8d53f54cca4U, 0xbe9a479000000000U, 0x3ef4b8233f34e125U,
  0xbf1f997b3f84ffe6U, 0x3ee21ed7bf31aa84U, 0xbf3c6f08U, 0x3f1c217cU,
  0x3fbf2029U, 0x3f1c44cd402aefb1U, 0x3f93d2613f80d0eeU, 0x3fb37f7600000000U,
  0xc006187200000000U, 0xbf4247b3bfea6733U, 0xbe801769U, 0x3f30f7ecbee8964cU,
  0x3f560c2cU, 0x3f12a18900000000U, 0x3f088fb200000000U, 0x3f4b63a2U,
  0xbf76f8fb00000000U, 0x3fb880c8beae5566U, 0xbeb4250bU, 0x3ecc9d553fcb041aU,
  0x3f16438a00000000U, 0xbf93111500000000U, 0xbf8cac2a3f064740U, 0x0U,
  0xbed39cf2U, 0x3f133587U, 0xc0120f1c3f539cf2U, 0xbf8a022fU,
  0x3f5041a6U, 0x0U, 0xbfb2b4e0bf1ac902U, 0x0U,
  0xbe8174ebU, 0x3f4f83153f0459a7U, 0xbefee58d00000000U, 0xbf40ce74U,
  0xbef85c62U, 0x0U, 0x0U, 0x3ef8975d3f5b3e62U,
  0x3e5cf85300000000U, 0x0U, 0xbea4c454U, 0x3edbb0703f791ca3U,
  0xbe894e463ef7267eU, 0xbf0d3a9100000000U, 0x3f628316be6b6e0aU, 0x3f599821U,
  0x3eb5ec4e00000000U, 0x3f3423b7beaec9f0U, 0x0U, 0xbf83b40700000000U,
  0xbf4435ff00000000U, 0x0U, 0xbfaaad37bf79f7a4U, 0xbe819b783ea4f46aU,
  0xbee8b43b3ecb3f71U, 0xbf3b0c02be4e3185U, 0x3e5fddfe00000000U, 0xbea20256U,
  0x0U, 0xbf89113ebf5e5468U, 0x0U, 0xbeb55144U,
  0x3efe6ba9bf17f213U, 0xbf5b15993f1b7aaeU, 0x3f02be703fceb779U, 0xbfe0628100000000U,
  0xbf0dbb20bf496a90U, 0x0U, 0xbf43a67cbeea2a08U, 0x3e6a2a08U,
  0xbeea2a08beed3ecbU, 0xbf52b755U, 0x3fbc751800000000U, 0x3eed6d38U,
  0x0U, 0x3f6609bcbf088534U, 0x3ef25c8bU, 0xbeea25563f826c60U,
  0x0U, 0x3f494885bf099caeU, 0x3ecea24aU, 0xbf88ae04bf55175dU,
  0xbea395d0be687694U, 0xbeb07ff5bf687694U, 0xbe573e63U, 0xbf5fb13500000000U,
  0xbec7e52abf8412d7U, 0xbf8ff8dd00000000U, 0x3edfb135bf971c7aU, 0xbf4d637a00000000U,
  0x0U, 0xbebb9959beb1e547U, 0xbf4bc577U, 0xbef65b6d00000000U,
  0xbea5959500000000U, 0xbf5a162e00000000U, 0xbeb1b342bf803a14U, 0xbf3bcbfd00000000U,
  0x3f3dac9fbc68d412U, 0xbf4279d13f0cbecaU, 0x3d4b3964bf38b954U, 0x3f3529163ede1480U,
  0xbf21d22c3ec21644U, 0xbebb7f3ebeede384U, 0xbe97402bbf0c936eU, 0xbd2952f3bca23c78U,
  0x3e9a43053f2d1559U, 0xbed32023bf1062a0U, 0x3f5b2befbf6872f3U, 0x3f38d19b3ebdfc48U,
  0x3f4cdd963e9704b4U, 0xbf537bb2be340518U, 0x3f8fe7f83f5882a4U, 0x3fbed9173f47dc19U,
  0x3cf61030be5a39efU, 0x3e2e6e0700000000U, 0x3de627a4bd8cf206U, 0x3e9a1facU,
  0xbebd3ea1be18c2b5U, 0xbd37406abe862b63U, 0xbd890575U, 0xbd87ba97be1de7eaU,
  0xbe076fcfU, 0x3d584963U, 0x3e26001100000000U, 0xbd87427100000000U,
  0xbe5f8512be6edc74U, 0xbdd775d900000000U, 0x3e78db8abeb48338U, 0xbde777383e809d35U,
  0xbd4d0d7e00000000U, 0xbe46a7fa00000000U, 0x3e8641cb00000000U, 0x3e95354b00000000U,
  0xbef8b9beU, 0xbdac80edU, 0xbdf2d423bd9ef1daU, 0x3e8f44f53dbd7cb3U,
  0xbe8cb82cbdba39bdU, 0x3da12b32be74e9b0U, 0x3e64b622be1fa3f6U, 0xbdff7d81be970116U,
  0x3e852032bd5a1732U, 0xbe1a0a0dU, 0x3d5634df3e4425c4U, 0xbed1f8f3bef034abU,
  0xbe8cf9463dc4b606U, 0x3e553125bdb47352U, 0x3dfdb3a4U, 0x3e549f24bdaa114bU,
  0xbd3c0355U, 0x3d7455e23dbfabb2U, 0xbe9817faU, 0x3de236fc00000000U,
  0xbd87ddf6be01cb26U, 0x0U, 0x3e4ae3a2be943cd2U, 0xbe2cd4e63e8bd199U,
  0xbe90a1663e5cafdbU, 0x3e2b279dU, 0x3eb847d63e2a9025U, 0x3dd3a033bd7218ddU,
  0x3d574e2a3d938884U, 0xbd7099c2U, 0xbdb02e87U, 0xbdd0e43600000000U,
  0x3da6e496beeb042aU, 0x3d4685c800000000U, 0xbf007f31be21af66U, 0xbe83f56800000000U,
  0x3e386417be8606a5U, 0x3e25654cU, 0xbe29b06cbddd8ab9U, 0x3dcae3aa00000000U,
  0x3e2e36c6be192ec5U, 0xbe43df803e877f5cU, 0xbe82ba9f3e10fa86U, 0xbe74b13bbe174f8aU,
  0xbd8f8972be011774U, 0xbd045491U, 0xbd996fc3bdb73aa1U, 0x3cd0e436bd94cf22U,
  0xbd26e4963db42ddcU, 0x3d89704f3e0fc0c6U, 0xbe42435000000000U, 0x3e899d2ebe4682a3U,
  0x3e5a5b94bd92b920U, 0xbd7f2f0ebdcb905dU, 0x3df37790bd02519aU, 0x3e4721d200000000U,
  0x3d037b74be308cafU, 0x3d1cb2cc3dde804cU, 0xbcb067c6bd13d242U, 0x3d4666303dbd236dU,
  0xbe6bcf84bdcadbb6U, 0xbdcb805e3e2569b6U, 0x3e4c9504bd61833cU, 0xbe064990be6c800cU,
  0x3dfa56e13dbc0355U, 0xbe83b64c3e1e20d9U, 0x3dfaec4700000000U, 0x3e5322403e38f9bbU,
  0x3f1a1042be0fe6ccU, 0xbe5a3fd3bd98ac46U, 0x3e4e93fe3e26280bU, 0xbeee9533be027f5cU,
  0xbdf33dfd3db5bdffU, 0xbdd31741U, 0xbdbb9e8fU, 0xbe49b4b13dea8816U,
  0x0U, 0xbda4bd40bebefa0cU, 0xbe6eaddabe373aa1U, 0x3dc9f489U,
  0x3eba43b0be052d07U, 0x3e5d6dd53e062b63U, 0x3e530349U, 0xbea6eddaU,
  0x0U, 0xbed53679bec9f93cU, 0x3ec1aabebe0c17b9U, 0x3e68f26e00000000U,
  0xbe9549c9U, 0x3eb52386U, 0x3e4cc199be3b9e8fU, 0xbe5a3d35be8649cbU,
  0xbe269af6be8eec40U, 0x3dd53125bdf69d9bU, 0x3ea417863eaae573U, 0x3eecde343dc4a3ffU,
  0xbe67196eU, 0xbe9c87053f18237cU, 0x3e34de3eU, 0xbeef69203f0f3e44U,
  0x3de8ea38be158b75U, 0x3eb8ac29bd98ac46U, 0xbe2d60c73e9ac0e7U, 0xbe8ec6223e845c9bU,
  0x3e6ff48000000000U, 0xbe5dfd4c00000000U, 0x3ea4e0acU, 0x3e2f40aa3e53d5c1U,
  0x3d388c2400000000U, 0xbd9b0c78bd96601aU, 0xbd5da16f3d9b0a39U, 0x3d330cc0be2f61d5U,
  0x3d4aa7dbbea28d8cU, 0xbe18b5ad00000000U, 0xbd62a3ddbdd045bcU, 0x3e29a93d3d588e83U,
  0x3e6dc46ebe757aa7U, 0xbe7e7474U, 0x3d4e93febdfe1f20U, 0x3dbbdc483d240dd3U,
  0xbd8a0e6dbe332557U, 0x3e6e4fec00000000U, 0xbe0dc11b3deec9cdU, 0x3df4b13b3d082dfcU,
  0x3e70efda3e1cc10dU, 0xbe33466b3e07567dU, 0xbe6f9b70U, 0x3d41f87b3e04dd83U,
  0xbd1af8d43d8d0280U, 0xbd27fb0bbe61368bU, 0xbe5a8bb93d838a5cU, 0x3e96cf52be1964f2U,
  0x3e5f35cbbe45830eU, 0xbd8d05cb3dc533daU, 0xbdec16d93d437a67U, 0x0U,
  0xbe733dfd00000000U, 0x3d6b0c33bd4d62bcU, 0xbd3d01793e02c3d8U, 0xbe0e2fa23e1b17eeU,
  0xbe2e4b783e8a4ffcU, 0xbebcf7323dd88a62U, 0x3e2a7c2e3e7db3a4U, 0xbdba829e00000000U,
  0xbd0d0280U, 0xbe7fc9e93e792c01U, 0x0U, 0x3da5e40ebdbd7cb3U,
  0xbe50cc5fU, 0xbe3c07ba3e88c4feU, 0xbe6105c73d296a15U, 0x3e7f7d813d32f7ceU,
  0x3decab0400000000U, 0xbdc1f9b1U, 0x3e1981bbU, 0xbde77738bd8fbec3U,
  0x3d94a9c83e169b5dU, 0x3da4bd403e9f65deU, 0x3da1f5f800000000U, 0xbea2438e00000000U,
  0xbdcaa7db3e10ed3cU, 0xbd81cda0be361650U, 0xbe83883ebd9976c0U, 0x3e96cf5200000000U,
  0x3e8570dbbe50cc5fU, 0x3ec61a6d3dfe7474U, 0xbe508290U, 0xbe3458973dd0cbc6U,
  0xbe318043be5f4883U, 0x3e47233900000000U, 0x3d90e78800000000U, 0x3e466630bde2f74fU,
  0xbe510166U, 0x3e8eef7f3e619026U, 0x3d90e98ebe809cd8U, 0x0U,
  0xbe120803bdbc0355U, 0x3ef26d3600000000U, 0xbe5e97cbbd93fba7U, 0xbd87ba973e3d7cb3U,
  0xbe0303c000000000U, 0xbec39cb9U, 0xbe59a5103d88d5aeU, 0xbeab82d1U,
  0xbeae36c6be3d87f8U, 0x3d829500bdab279dU, 0xbdd25c71U, 0x3e14cca4beaa397bU,
  0xbda92b21bd2c1f45U, 0xbd7bf4433d1c63f2U, 0xbd3b8899be76a78aU, 0xbd06499000000000U,
  0xbd9502f43d0d0280U, 0xbe2f9dba3d062b63U, 0xbd8182353e8fdf54U, 0xbd5322403d7ca644U,
  0xbe958b75U, 0x3d864ea900000000U, 0x3e4ae3a2be02519aU, 0xbd7f7d81be027f5cU,
  0xbea2b5933de9ab24U, 0x3dd8cbc6U, 0x3ddc81b8bd13d242U, 0xbdb92c2d3e3d236dU,
  0x3e7610303e47c8deU, 0xbe381ece00000000U, 0x3e3ac0aeU, 0x0U,
  0xbe052d07U, 0x3eb18666bd862b63U, 0x3e80cccfU, 0x3de236fc3d4682a3U,
  0xbe4bccf1bdd0cc5fU, 0xbdf1c0cabe1f08c9U, 0x3d8f59c3U, 0xbde16ebd3eecc27fU,
  0xbe2110d400000000U, 0x3dfb06e6U, 0xbe012768bd35ef16U, 0x3dc6663000000000U,
  0x3ccd0d7e00000000U, 0x3e467edaU, 0xbdbe46bbU, 0x3da42106bdcf4513U,
  0xbd9cad72U, 0xbe6510843d3fabb2U, 0x3e5e97cb3ddb3beeU, 0xbd8030393cfca644U,
  0xbd985dc9U, 0x3e13bcedbdbed757U, 0x3d7ad8473d8f59c3U, 0x3d874271bd9523d7U,
  0x3ea7a3ce3dda1732U, 0x0U, 0xbda3ce143e2208f0U, 0x3d174f8aU,
  0xbd6bcf84bd938884U, 0x3dae6e07be85d587U, 0xbda1f5f83dbe46bbU, 0x3e0dbf6e3ce9d7c7U,
  0x3d0f0d13bdc3d8ceU, 0xbda0585cbce6013cU, 0xbd3213093e9ad587U, 0x3de9c1593d226ae2U,
  0xbd985dc9U, 0xbcd6e44200000000U, 0x3e29b06c3e6750d8U, 0xbe616ebdbd7d89baU,
  0x3cd25f20bda62a0eU, 0xbd6b0c3300000000U, 0xbd973461bd8e22c9U, 0xbdda3d353dcc44faU,
  0x3e81708400000000U, 0xbdfbf44300000000U, 0xbf0752913e0cf206U, 0xbd7da7663e04dd83U,
  0xbe6b702f00000000U, 0xbe55cb26be22eb8aU, 0xbe87944f3daf6325U, 0xbdd32240be0bdc0aU,
  0xbe5a5b9400000000U, 0x3e2486c300000000U, 0xbe4d4086U, 0x3e7bbba8bd41e1caU,
  0xbe58f219be3856a8U, 0x3d8fa3e6be145588U, 0xbd4cacf9U, 0x3e117e23bd7218ddU,
  0x3d574e2abe54143eU, 0x3ed53125be5b8c4eU, 0x3d6eadda3e5dfd2fU, 0x3deebbabbd5f36b2U,
  0x3e74610000000000U, 0xbe8b58fb3e27b63cU, 0x3ebc313500000000U, 0x3d9e59b0bdfca644U,
  0x3e5f35cbbd4b27b6U, 0x3e6b5eecU, 0xbd938e483dd706a4U, 0x3e70761f00000000U,
  0xbeb180433e1bc76dU, 0x3e0fa3e6beab279dU, 0x3ec807f63e087350U, 0xbe00f59f00000000U,
  0xbdc4b606U, 0xbd6892b43e045491U, 0x3e196fc300000000U, 0xbe5c1502be0f7e97U,
  0x3da6e496be47c38aU, 0xbe98b5ad3e9e20d9U, 0xbe4e67843d8e808eU, 0x3e07ba973d4682a3U,
  0xbe166c9abda3a71aU, 0xbe2486c3be124fc3U, 0x3d224fb53e0593a4U, 0x3e856185be8639dbU,
  0xbe10a166bd1164ccU, 0x3d8fa3e63e2b279dU, 0x3de2ce923d414e07U, 0x3d974f8aU,
  0xbdbe9056U, 0x3e5a098900000000U, 0xbdeeadda3db73aa1U, 0x3e50e4363e937affU,
  0xbe1502f43d9cad72U, 0x3e8787a300000000U, 0xbe6e6ac6U, 0x3e0b7fc6bea02966U,
  0xbe0cb82c3e158b75U, 0xbd56e4423d3ed757U, 0xbd84ccdabd88d5aeU, 0xbd0639dbU,
  0x3d97345f3e4020a0U, 0x3e304926bd4d62bcU, 0x3d844dd53e60931fU, 0xbe0444203e500d5eU,
  0xbdb88c2400000000U, 0x3e045491U, 0x3d4c95043def9b70U, 0xbd064990bd3f5374U,
  0x3e061c42be381899U, 0xbe27fb0bbd66013cU, 0xbe00cccfU, 0xbe5322403d3476c2U,
  0x3d7c53123e0d1478U, 0xbd4975febdb87ad4U, 0x3dc733473db6723eU, 0xbd3458973d0639dbU,
  0xbdf33dfd3ea4ddbaU, 0xbe9ce450U, 0x3e4fe805bd8e22c9U, 0x3e6ac5b900000000U,
  0x0U, 0xbd9b0c7800000000U, 0xbdc40ecebe61833cU, 0x3e36c7af00000000U,
  0xbdacda77be381899U, 0xbe18b5ad3e57a128U, 0x3d3213093dbfd470U, 0x3e14e1faU,
  0x3ddf35cb3e876fcfU, 0x3d2e9976be18ac46U, 0x3eea3eab3e6750d8U, 0x3dd9eb0c00000000U,
  0xbeaaed4a00000000U, 0xbdf193a63d945588U, 0xbe65f4febe13d242U, 0x3d392c2dbdcc44faU,
  0xbde37277U, 0xbe2e6e07be2267caU, 0x3d996fc33e3ac0aeU, 0x3ceebbabbdc9f489U,
  0xbd891732bd4bae47U, 0xbe81cda03e447663U, 0x3e5a8bb9bd9ef1daU, 0xbdc40d85bd105f02U,
  0x3d985dc9U, 0xbe31f5073dcb905dU, 0xbd6c16d900000000U, 0xbe29130ebddfb5c2U,
  0x3d1dc75800000000U, 0x3e29c1b3be1ce450U, 0x3e01276800000000U, 0x3e117e233d62f74fU,
  0x3e4d0d7e3e66854fU, 0xbe9d78aa00000000U, 0x3e263913be61833cU, 0x3e8b8230U,
  0x3de8753e3da482eaU, 0x3ece0bc6U, 0x3ea46cf3U, 0xbeaff3caU,
  0x3ee8ea383dd67108U, 0xbe02f31800000000U, 0xbe3c22353e508290U, 0xbde16ebd00000000U,
  0xbdbea635be4020a0U, 0xbe543220bdef9ddbU, 0x3de36adcU, 0xbe981b253df218ddU,
  0x3e70efda3d510166U, 0x3d2e6e0700000000U, 0x3da1f5f800000000U, 0x3d2421063d9a1facU,
  0x3d0f0d13be0917c3U, 0xbe7455e200000000U, 0xbe454f8aU, 0x3e65fc2abdb476c2U,
  0xbd1b46d03e50cc5fU, 0x3dd02d20be1f08c9U, 0x3e224fb5bd6a92e2U, 0xbda551353dee9fbeU,
  0x3e4f15a4be524d3aU, 0xbdde804cU, 0x3d3d01793e636adcU, 0x3d981b2500000000U,
  0x3d80286f3e873d24U, 0x3d553125bd7099c2U, 0xbe3fcbb43e05e5ecU, 0x3ec3d5f200000000U,
  0xbe47aceabe5b5938U, 0xbe42b470be8160b2U, 0x3d62a3ddbe379bcbU, 0xbe4048563d6a9a63U,
  0x3d68ea3800000000U, 0x3ddd9b6400000000U, 0x3e3c223500000000U, 0x3e6ae53fU,
  0xbde479d3U, 0xbe891c73be0ea102U, 0x3df5b51e3e0e22c9U, 0x0U,
  0x3d2e4b78be44b606U, 0x3d9b0c78bd588a62U, 0xbe84203d00000000U, 0x3e6b00bcbe177767U,
  0x3e3bc1293eaa6305U, 0xbe1c8705bd2c80edU, 0x3df2d4233e3fd470U, 0xbe94ecbbbe899a8eU,
  0x3e5a5b94bd12b920U, 0xbe502d203df817f1U, 0x3e2d60c73d8f59c3U, 0x3e1c98d5U,
  0x3e245a51be3856a8U, 0xbe8e0209be005db5U, 0x3e6f6844be747946U, 0x3e14cca43e009d35U,
  0xbde37277U, 0x3eb5b29dbdfca173U, 0x3e84203d3e5dfd2fU, 0xbe4d29473e8f7e97U,
  0x3e1502f43dc3d8ceU, 0x3e059ef83e746150U, 0x3e62a3dd3e1ef1daU, 0x3e6d86883e2b70d2U,
  0xbe6dc46ebe0a4223U, 0xbec2bedcbe74e9b0U, 0x3d8c2d91bdafee2aU, 0xbddfb5c2U,
  0x0U, 0xbd6b0c33bd88ec7dU, 0x3da3ce143d4cacf9U, 0xbdcd03313d9ee051U,
  0x3d2e4b7800000000U, 0x0U, 0x3e8a84e500000000U, 0x3e276906U,
  0x3dee6b1f3e8337a9U, 0x3e1c8705be746150U, 0xbe6ec81200000000U, 0xbe25e40e3e1964f2U,
  0xbea021063d9e0272U, 0x3deb09a8bd3ed757U, 0xbddd8ab9U, 0x3e8ce53600000000U,
  0xbe13eae23e28c2b6U, 0x3e1ff686be396aeaU, 0xbe36b4a0be303f9dU, 0x3d882dfcU,
  0x3e403ca6be073d24U, 0x3d41cf9600000000U, 0xbdf73410bd9b0a39U, 0x3e15354bbe937affU,
  0x3dd6939cbd3c0355U, 0x0U, 0xbe15be8dbeae045fU, 0xbe0f44f53d105f02U,
  0xbd07ddf63dbfde65U, 0x3d98ac46U, 0x3e811c7fbde40eceU, 0x3e7bbba8beb11a8fU,
  0xbd10a16600000000U, 0x3e4723393e145588U, 0xbde91b6bbe8b4b0dU, 0xbeb1ca42U,
  0xbe0cf946bd44b606U, 0xbe6d6b18be739bafU, 0xbda1f5f83e41ccc8U, 0xbd50e436be90d2baU,
  0xbd9502f4be01424aU, 0x3d7455e23e792c01U, 0x3e66afee00000000U, 0x3d34f8c93e82d61aU,
  0x3d567108U, 0x3d93bced3e9f08c9U, 0x3e36723eU, 0x3e637041U,
  0x3dd4e5e2U, 0xbe97cd363dbc452cU, 0x0U, 0x3e1eb8263e082dfcU,
  0x3d9fd3e5U, 0xbe07aae900000000U, 0x3ceeaddabdcc5eeeU, 0x3d41f87b3d7f19f0U,
  0x3d1af8d4bd0d0280U, 0xbe7455e23e8fc0c6U, 0xbe099a583dc54f8aU, 0xbde236fc00000000U,
  0xbdf29ea5bd92b920U, 0x3d864ea900000000U, 0xbd224fb500000000U, 0xbe7f7d81bda40dd3U,
  0xbd525f2000000000U, 0xbe029500bdb690a7U, 0xbe0a9aae3e842fb6U, 0xbd392c2d00000000U,
  0x3db88c243e1075acU, 0xbe3d7916U, 0x0U, 0xbe0dbf6e00000000U,
  0x3e657a4ebdbc0355U, 0xbe2429b43e4e0bc6U, 0x3e66afeebd5b3beeU, 0xbe80303900000000U,
  0xbe3389e0be92b920U, 0x3dfe7474U, 0x3d4e93fe3d36723eU, 0xbe7bbba83e9e7614U,
  0x3d6cab04bd1164ccU, 0x3ea67df9bdc1f9b1U, 0x3e140df4bdc14e07U, 0x3d9eb8263e79a9a4U,
  0xbe2e4b783d8d62d4U, 0xbe5058c13d407b02U, 0xbd4c950400000000U, 0x3e028ea2bd3f5374U,
  0xbda0eeb53e3fee11U, 0xbea7fb0b3e948b77U, 0xbe5a8bb93dfc1e85U, 0xbdd3224000000000U,
  0x3e202106be2ef06bU, 0xbdff2f0e3e4533daU, 0x3e64b62200000000U, 0x3d3458973e1523d7U,
  0x3e31804300000000U, 0xbe338ce0be84a519U, 0x3de2ce92be0b4b0dU, 0xbd917e233d9ee051U,
  0x3e7380053dbe9056U, 0xbe1fe4dcbe845491U, 0x3d88635800000000U, 0x3dc1f87b00000000U,
  0xbdacda77be5b5938U, 0xbdb7406a3e062b63U, 0x3e15be8d3e379bcbU, 0xbde236fcbd6a9a63U,
  0x3e7c53123e4dfa0bU, 0xbe42bedc00000000U, 0xbe224fb53d1c61ecU, 0x3dd0cbc6U,
  0xbd1dc7583e6edc74U, 0xbe9e5171U, 0x0U, 0xbd117e23bdf9a9a4U,
  0x3e6e5faf00000000U, 0xbe07567dU, 0xbe4851e93e5dfd2fU, 0xbe2f51d23e0f7e97U,
  0xbea0982eU, 0x3d7455e2bd062b63U, 0x3db213093d9976c0U, 0x3de19473U,
  0x3da4fb3d00000000U, 0xbe7bd37d00000000U, 0x3da9b06cbe129bcdU, 0x3d435ff93db2f7ceU,
  0xbe17345fbe992ec5U, 0x3e0fa3e600000000U, 0x3e2d415abe525c71U, 0xbec666303d882dfcU,
  0xbe7b30873dc4b606U, 0xbd2e6e0700000000U, 0x3e2a7c2e3edfc036U, 0x3e50e4363ea8bd28U,
  0xbd7a56e1bedf43f5U, 0x3eb87ba8U, 0x3db213093e5045bcU, 0x3e6a9a63U,
  0xbe386417bd876fcfU, 0x3db5509800000000U, 0x3e02519aU, 0x3e0380993e5fb5c2U,
  0x3de6180b3d9bc76dU, 0x3e29c1b300000000U, 0xbe1c5977U, 0x3e1eb826bd974f8aU,
  0x3e269af600000000U, 0xbea7297100000000U, 0x3d90e98e00000000U, 0x3e45b36a00000000U,
  0x3e4f9903U, 0xbe7bf8913ebd4659U, 0x3dbfd470U, 0x3e8d625d3e905f02U,
  0x0U, 0x3d4975fe3e08c4feU, 0x3e6105c73db6723eU, 0xbe3bdc483e2b82d1U,
  0x3ed0ba6200000000U, 0xbd6b0c333e06123bU, 0xbd7c01f7bd35ef16U, 0x3e981b2500000000U,
  0x3ddc6e8100000000U, 0x3d41cf9600000000U, 0xbda9226dU, 0xbdd0e436be9cc7f1U,
  0x3e2c5863U, 0xbe8b58fbbe7df6b2U, 0x0U, 0xbe8030393db476c2U,
  0xbe0d1478U, 0x3da7e254be51ece0U, 0xbeba4a07bd508290U, 0x3e9bec9800000000U,
  0x3d9dc758be577e8aU, 0xbecf4c8900000000U, 0x0U, 0xbe4d03313e8649cbU,
  0xbd0f8972bd873d24U, 0xbe5058c1bd1c63f2U, 0xbe26391300000000U, 0x3e8a047f00000000U,
  0x3e01424aU, 0x3da0585c3d3fabb2U, 0x3e099a58bd712853U, 0xbe221edfbd3476c2U,
  0x3db49514U, 0xbd645286be584963U, 0x3d3fd290beae4d24U, 0x0U,
  0x3db1804300000000U, 0x3d08ec7dU, 0x3e140df4bd9981bbU, 0x3e0792a100000000U,
  0x3e1739f33e19ae35U, 0x3d915bb03dea95eaU, 0x3e9b9150bdbe46bbU, 0xbe028ea2be2f61d5U,
  0x3d9af8d43e6b042aU, 0xbe14e456be447663U, 0x3eb21309be1c344dU, 0x3d34f8c9be1de7eaU,
  0xbe4bccf1be349514U, 0x3d864ea9bec39cb9U, 0x3da9b06cbd437a67U, 0x3e0380993d7d89baU,
  0x3d9dc7583d8c337cU, 0x3dd775d900000000U, 0x3e338e33be8b4b0dU, 0x3d4666303e009d35U,
  0xbda40acb3dd10166U, 0xbf19d65fbe88d773U, 0xbdcc9504bdef9b70U, 0xbd5fcff0be4c9cceU,
  0x3e657a4e3d6b042aU, 0x3d8fc0c6U, 0xbe246cf3U, 0x3e38bdf83e92a07eU,
  0xbe46f2babde1ba59U, 0x0U, 0x3dd5f4b53e15ddd8U, 0xbe2cd4e63dba6cccU,
  0x3e8031f83d81d0dbU, 0xbe94897d3eab279dU, 0xbe97346100000000U, 0xbe981b253e009d35U,
  0xbdf0efda3e3e9056U, 0xbde892b43eb17166U, 0xbd2a7c2ebd6f9b70U, 0x3dc1f87b3ea8bd28U,
  0xbdee6b1f00000000U, 0xbe20585c00000000U, 0xbdb21309be1c344dU, 0x3e0b7fc6bdc682a3U,
  0x3e20d4c6U, 0xbe355098bd18ac46U, 0x3da24fb5be0c17b9U, 0x3e856185bd9c98d5U,
  0x3d90a166bdda1732U, 0x3dc3df8000000000U, 0x3e580beaU, 0x3dbd236dU,
  0xbea2c2b5be386aa6U, 0x3ed2c4f33e196206U, 0x0U, 0xbd9cab283e8b8230U,
  0x3ea5671e00000000U, 0xbd89704fbed0711eU, 0x3e25eed400000000U, 0x3de9c1593e0bdc0aU,
  0x3daeafaa3e2c1e17U, 0xbea12b32bd321e51U, 0x3e173ea33d95ddd8U, 0x3e89f45aU,
  0x3dd4e5e2U, 0xbdc3df80bd88ec7dU, 0xbe140df43e27b868U, 0x3dd3a033bdcc44faU,
  0xbdbe9056U, 0x3e2995a3bcf099c2U, 0xbd5da16f3e4c5eeeU, 0x3d6ebbabbe573de3U,
  0xbd4bae47U, 0x3d6510843da2eb8aU, 0x3dca5b73be530349U, 0x3e94ecbb3eadb24eU,
  0xbdaeafaabe3a39bdU, 0x3d212b3200000000U, 0xbe91b61a3e5a48afU, 0xbd616ebdbd5fb5c2U,
  0xbeafdb85bd9bc76dU, 0xbdb0dc22U, 0xbd7a28beU, 0xbdee14393d53d5c1U,
  0x3e35fbf93e25f995U, 0xbe0c834dbe6a95eaU, 0x3e72f0f53e1b0a39U, 0xbd864990be71d097U,
  0x3dd6939cbd94d7f9U, 0xbdd2d677U, 0x3e15be8d00000000U, 0x3dc40d853e4b059bU,
  0x3ddf35cb3eb32beaU, 0xbd3c07babdbed757U, 0xbdb11123becee18bU, 0x3e218f5d3ea23093U,
  0x3e0d57ea3d6479d3U, 0x3e29c1b3bd58cbc6U, 0xbe8cb6ebU, 0xbe53a03300000000U,
  0xbe3dac7bbec32c9aU, 0xbd649212U, 0xbe72f0f53dc552d4U, 0x3d95354bbd9f7036U,
  0xbdcaa7dbbe7aaf1cU, 0x3daf9dbabdb61650U, 0xbd899a58bd5045bcU, 0xbdbc83273e4682a3U,
  0x3e0cb82c00000000U, 0x3dff2f0ebe90b8a2U, 0xbe4e93febe745901U, 0x3db4589700000000U,
  0xbe5f8512bdbaef50U, 0x3e162b593e6434d1U, 0x3e33175aU, 0x3e044420be1ee051U,
  0x3cf53208bcccaaf8U, 0x3be49ddfbd2cc2f7U, 0x3d7fe716be3289f7U, 0x3de3c32abdaf8f35U,
  0xbe55ab34bda9d58fU, 0xbda7055fbdb47777U, 0x3e34dfb4bcdf144bU, 0xbe886d8dbe1fcddaU,
  0x3d8dc7633e061c3dU, 0xbdbf61033de781a0U, 0xbe11830fbe5e1ec1U, 0xbe8c0fa3be0877c6U,
  0x3e07ca883cd0c5d4U, 0xbd217d91bc0a8d2cU, 0xbd0f9a26bd1cf124U, 0xbe641754bdf18cc2U,
  0x3be08cd0be88914dU, 0xbe0b5f4bbd4afeebU, 0x3d6cde5abde4061bU, 0xbdb9eaa5be179accU,
  0xbd7b7cbcbdbba968U, 0xbd59f0ebbc5e4ddbU, 0x3d02e428bd6a66aaU, 0x3da8549d3d3b95a9U,
  0xbf35ff2100000000U, 0x0U, 0xbf33216900000000U, 0xbf35ff21bf06b4c6U,
  0xbee8753e00000000U, 0xbe905e5fU, 0xbf07cdedU, 0xbf1b613bbee3906bU,
  0xbec3c10cU, 0xbf2a1ac600000000U, 0xbf7a0882bf0f7632U, 0xbf8223e8U,
  0xbe938f84U, 0x3e932c8400000000U, 0x3e25035ebe754a32U, 0x3e9c17f13ed84d10U,
  0x3f0d9960U, 0x0U, 0x3f394db53f904b32U, 0x3faa1d5eU,
  0x3f97e35d3f760f0dU, 0x3f3030b43fc0e5e0U, 0x3e9bc3633f85a95cU, 0x3ebfec2c00000000U,
  0xbea41b92U, 0xbf18fb5400000000U, 0xbf309fd7bf0156d0U, 0x3ed0463400000000U,
  0x0U, 0x3f0d3a2000000000U, 0x3f352b893f101483U, 0x3efdec63U,
  0xbe16158200000000U, 0x3ea08e143e4dede2U, 0x3e3201b23e3c7a44U, 0x3eb8fcbe3edda2bdU,
  0xbea61dfebf184628U, 0x3eef1ba7be8cf2a9U, 0x3f0a6e5300000000U, 0x3ee001a700000000U,
  0x3f7dbc1d3f1fd328U, 0x3f9e2c1f00000000U, 0x3f92a392U, 0x3fd13fb43fa9b4acU,
  0x3f8db2313f8229a4U, 0x0U, 0x3f135f4400000000U, 0x0U,
  0x3e80f35b3fc2f607U, 0x0U, 0xbef37bb53ec79390U, 0xbf27a4e9bf7d7649U,
  0xbeb39e68bf678236U, 0xbf399b27bebb9a11U, 0x0U, 0xbf59e05a00000000U,
  0xbef70a7abf11d2a1U, 0x0U, 0xbf01e926beaefcc1U, 0xbf346e7c00000000U,
  0x3f0df08300000000U, 0x3eb2069c00000000U, 0x3f98c3f1U, 0xbed79f1eU,
  0x3f66c0be00000000U, 0x3f7035c100000000U, 0x3ea2a97100000000U, 0xbffc589f00000000U,
  0xbff423cabfb06feaU, 0xbf8d8f60bfd97815U, 0xc00246ba00000000U, 0xbfa00640U,
  0xbe90fca000000000U, 0xbea3b1ddU, 0xbee07ee600000000U, 0x0U,
  0xbe74b0debf947e9bU, 0xbf51f8a3U, 0x3e87926d3f2554e9U, 0xbea2066a00000000U,
  0x0U, 0xbec48cc600000000U, 0x3f20030400000000U, 0x3ec207b03ee044bbU,
  0xbea64fbbU, 0xbf2d66aabeba786dU, 0x0U, 0xbedd73b100000000U,
  0xbf39efa1bec461c3U, 0xbf84a988bf1ec6dfU, 0x0U, 0xbf52e6bdbfa572ceU,
  0xbf9172febf9ffe7eU, 0xbf885bcebf8dd01eU, 0xbf91aa48bfe6e68dU, 0xbf63712dbf92f163U,
  0x0U, 0xbf0254fd00000000U, 0xbfa246aebf63712dU, 0x3f043ef4U,
  0x3f7b7be800000000U, 0x0U, 0x3efb7be83f89aa73U, 0x3f6177ebU,
  0x3f654643U, 0x3f207dfb3f654643U, 0x3ff2a6183f01ec15U, 0x3f85be52U,
  0xbf0b58d9bf44a25aU, 0x3ec9477200000000U, 0xbe5ef48eU, 0xbe94a30900000000U,
  0x3f6e5b41be77ba65U, 0xbf5414b8bf28e9fdU, 0x0U, 0x3f3f6f97bf6a9a52U,
  0x3f433086U, 0xbf0ee630bf134bcbU, 0x3f8b99fbbf6b3be8U, 0x3f157e9800000000U,
  0x0U, 0x0U, 0x0U, 0x3f2b5ce73f4b64b3U,
  0xbf0353293f4362c0U, 0xbedd0296bf09bb1eU, 0x3eb72c8b00000000U, 0x3ecdab4700000000U,
  0x3ee760b000000000U, 0x3f4c0ff03e808b0cU, 0x3e60f356U, 0xbe9877c0U,
  0x0U, 0xbf08f66c00000000U, 0xbf0cd6c1bf2418c0U, 0xbe8209c63e858d80U,
  0xbe9018abU, 0x3f0047eabecf5bb2U, 0xbf26f0dfbf5f2c73U, 0xbf9e8e91bf2c3675U,
  0xbeaa289cbef258deU, 0xbf43f0b3bfa3b696U, 0xbf15888900000000U, 0xbec3f0b300000000U,
  0x3f628abe3f0b4481U, 0x3f4a66f93eded402U, 0x0U, 0x3f69f8353f6bd393U,
  0x3f2543a4U, 0xbec4a81f00000000U, 0x3e94347fU, 0xbf19e7bf3eb9419fU,
  0xbe9f9affbf34fb2fU, 0xbf8bbab1bf59d87bU, 0x3f296f7cbf38d6b6U, 0x3f6da65800000000U,
  0x3f8520bd00000000U, 0x3f24f61d00000000U, 0x3ee468773f60c854U, 0x3f66388800000000U,
  0x3f110560U, 0x0U, 0xbec0150b00000000U, 0xbeeb229600000000U,
  0xbf18574fbf25968eU, 0x3f0b1811beaf85fdU, 0xbe850eb23f524c01U, 0xbf0fbfe1bf16e0aaU,
  0xbe6d9a3f00000000U, 0x3ed3775c00000000U, 0x3e5a9825U, 0x3f2aa9173f27d0f0U,
  0x3f66644500000000U, 0x3f16c0073f666445U, 0x3f24f8c93fb49d9fU, 0x3ed31fb500000000U,
  0x3f0dacdbU, 0x3eff922cU, 0x3fb066483f37582bU, 0x3f3491033f773cb6U,
  0x0U, 0xbf23f8a700000000U, 0x3ec9cf93bf2a4724U, 0xbf0abeb5bfc83bf4U,
  0xbef90c3fbf46a855U, 0xbf09a1b700000000U, 0xbeda7688bf8ab959U, 0x3f125ec7bf48fc69U,
  0x0U, 0x3e755016U, 0x3f1c1bb1beaf9f27U, 0xbed6a6133e9c1bb1U,
  0xbece492a00000000U, 0x3fbd5e5bbf3103f8U, 0x3f6b97a7U, 0xbedcae76U,
  0x3f3be0a3bfab79b9U, 0x0U, 0xbe9834dabe939819U, 0x0U,
  0xbf9270e9beb3e15eU, 0x0U, 0xbe8a549fbf05c1d7U, 0x0U,
  0xbe5f1d22bf0dad61U, 0xbf0a549fbe756cd9U, 0xbee3937abe8c8fcbU, 0xbf4912a9U,
  0xbf2953153f556b62U, 0x3f60009400000000U, 0x0U, 0x3ecf421300000000U,
  0x0U, 0xbe8f7c83U, 0x3e5f337700000000U, 0x3f7d18133f0585a5U,
  0x3f53051d3f456ae7U, 0xbf106add3fa30788U, 0x3f19ab1abfc72a06U, 0xbf3032f8bf64b7c6U,
  0xbf894fc8bd75ebe0U, 0x3f85b5c4bed9df3fU, 0xbef4daca3f4ca240U, 0x3f9061a2bed58bf2U,
  0x3dce5d5d3f156176U, 0x3f59e1ebbe82a377U, 0x3f95c5353fd1957bU, 0xbf4e7bc7bf87aa14U,
  0x3d8b55ab3f15b33aU, 0xbeb90f75be1706f0U, 0x3f1d74e1bf30b6b5U, 0x3f7629383f00fe00U,
  0x3eaf27cabf406b61U, 0xbf6c95d8bee42229U, 0x3f1e13f13efd1411U, 0xbf9ca3b9bfa7cf8fU,
  0x3f7d12a13f837e4fU, 0xbda8f26d3e1f3b26U, 0x3f3c8db93f684a04U, 0xbeb265e6befb8093U,
  0x3d91bacd3d814629U, 0xbe00df4800000000U, 0xbda3628d3e9940cbU, 0x3e7ef1bc3deaa230U,
  0x3e4c9485be4c944fU, 0x3e91aca03df4e207U, 0x3d771e95be8cbbcdU, 0xbe46685fU,
  0xbe82b76900000000U, 0x0U, 0xbd91ff39U, 0xbddc662600000000U,
  0x3e276173bda4c67cU, 0xbe36ba15be1dbd30U, 0x3e52b3d200000000U, 0x3d7008dd3e974c82U,
  0xbe20012bbe0a3d99U, 0xbe2ded06bd3d1326U, 0x3e112dedbe8225ffU, 0xbdffd048U,
  0xbd8af4e600000000U, 0x3e2baea7be224c0bU, 0x3e6a73b73e191927U, 0x3deaa38e3eb212f0U,
  0xbd3e91d1bdc74c2aU, 0xbe82562fbe83994dU, 0x0U, 0xbd93996dbe3af93eU,
  0xbd328aed3dbf6173U, 0x3eacc74cU, 0x3e3cc59500000000U, 0x3dfb3d6ebeaefc0cU,
  0x3dc05186bde84be4U, 0x3dab2516bd21f82dU, 0xbe9ac33c3da32c4fU, 0x3d9b9366be08c154U,
  0xbd2d27053e24c67cU, 0x3e090b90be13e15dU, 0x3de498aeU, 0xbda005e83d948c48U,
  0xbe26abe200000000U, 0x3d6c46d300000000U, 0x3d912ded3d841748U, 0x3d311a0aU,
  0x3e2c0aa300000000U, 0x0U, 0x3d55ad8300000000U, 0xbe8e04ad3d482636U,
  0x3dfd2966U, 0x0U, 0x3e801bd200000000U, 0x3e4945943e6e4cb9U,
  0xbd9c398f00000000U, 0x3dbfdd1d3e43e805U, 0xbe3279a400000000U, 0x3eabae3e00000000U,
  0x3e1c423d3e7ec6d9U, 0xbe86c6cebe251590U, 0x3e164a7eU, 0x3d42784000000000U,
  0xbe2a443c3d83d1fcU, 0xbdf737fe3e6c9bc8U, 0xbe3f7312U, 0xbdfd5eb03d948c48U,
  0xbe1cabcf3e78d546U, 0x3e72d70400000000U, 0xbea49f813e3698a7U, 0xbe73a58ebe04d388U,
  0x3da56cb0bebd1f3bU, 0x3e2d5cddU, 0x3e26319f3e434179U, 0xbd990e29U,
  0x3e4f627200000000U, 0x3e699682U, 0xbd148823bea49aedU, 0xbdead12dbdeaa230U,
  0x3e1110e0bde06099U, 0xbde9ffceU, 0x3d826c96bdd0d49cU, 0xbec09e0700000000U,
  0xbe3f1523U, 0x3df92f0aU, 0x3e3cee57bea77794U, 0x3e3f3a83bdf0f31aU,
  0x3db1f515U, 0xbe192b0a3e1dbd30U, 0x3e24e5c6be1d28f7U, 0xbe7d5eb000000000U,
  0xbdd556e43da5e384U, 0xbdaaa4ee00000000U, 0x3e3aa8c33de154e4U, 0x3e862ea700000000U,
  0xbd9ecebe3da0d402U, 0xbe1ce1ce3e1aeb7fU, 0xbdb21098bd28a145U, 0xbe82fae3U,
  0xbd06850c3e2c5d8cU, 0xbde4748cbdab1417U, 0x0U, 0xbdb5250500000000U,
  0xbe1110e0be322e97U, 0x3e2370813e3e76e9U, 0xbe970478bd9a5a5dU, 0x3e16be75bd844594U,
  0xbd405186be06e1beU, 0x3d9a07c73d3ae348U, 0xbe7d3f7a3e8b8e51U, 0xbe1c4aa9U,
  0xbd45bafbU, 0x3d4179bc3e9b463bU, 0xbe452a16U, 0xbe3406a6bd300e8eU,
  0xbe60a418U, 0xbea414bd3e4afa35U, 0xbdf8a44bU, 0xbe7ab57bbd6c22b8U,
  0xbd8456f300000000U, 0x3d310d23U, 0xbd1a52a6be6251b5U, 0xbdb31107bddfb23dU,
  0x3e8c1fec3e86a915U, 0xbdc14eed00000000U, 0xbdd75f00bdc4c4f8U, 0x3d56b09ebda14f81U,
  0x3e1c398f3dcc944fU, 0xbe6e0d9a3d92ee04U, 0xbe583ac200000000U, 0xbe770d793e61f6deU,
  0x3d6460cf00000000U, 0x3e55ee5c3e6cb97dU, 0xbe67e0a6U, 0x3e9517ed3ecec2c5U,
  0xbe3b94f0bed143c1U, 0x3e544920bd8a058aU, 0x3d8040ef3e8203a3U, 0xbd995aff00000000U,
  0x3dfd572f3d98108fU, 0x0U, 0xbe2b1ab3be0bdc6aU, 0x3ebaf0d2U,
  0xbdee361c3db8a790U, 0xbe0e14f400000000U, 0x3e8708513e852101U, 0xbe208adabe338bb1U,
  0xbe54fd533e372365U, 0xbe64748c00000000U, 0x3eebcb523e00a82cU, 0x3ebd87ebbdc5f8d8U,
  0xbd7cef7abe3f6173U, 0x3eb8c1f6bdd43b5bU, 0x3e8cbbcdU, 0x3eea7d9a00000000U,
  0xbe1f4383bd6fca36U, 0xbe670baa00000000U, 0xbe1cc5c53e5f4a1bU, 0x3e42784000000000U,
  0x3e3009cdbdab5dc8U, 0x3e8c7c7fU, 0x3e50981fU, 0xbd995aff3d9f8d31U,
  0x3e678d93U, 0xbd96f45cbe90962cU, 0xbdee824e3e78a44bU, 0xbea0aa63be5d608dU,
  0x3e3c9581be1dd990U, 0xbe6ccd9800000000U, 0x3dd09192U, 0x3e23a137be8bcf66U,
  0x3da8264fbe142064U, 0x3e6186bf3e1deb29U, 0x3e083998U, 0x3e91ec0b00000000U,
  0xbd504cbfbe322e97U, 0x3e937369beaa0ebeU, 0x3e5ba968bd88319dU, 0x3d727f90U,
  0xbe6fca36U, 0xbdde7d03be3ae348U, 0xbd90b68fbdc5867aU, 0xbecc31763e9285feU,
  0x3da19be23dcc5247U, 0x3ddc58dd00000000U, 0x3d92935abe3f7312U, 0xbe4b5cd700000000U,
  0xbe8700fcbe9d3fabU, 0xbdd206113d74af5fU, 0x3e06cf383daaf0f4U, 0xbdd3dddfbe04d388U,
  0x3e570d4b3e00111eU, 0xbd60f6833dce8f54U, 0xbe9ec64300000000U, 0xbd6b7840U,
  0x3d3e91d13de23ac8U, 0xbdfbe2f6bd83994dU, 0xbd411761bdbd338cU, 0x3d494594bdeaa230U,
  0xbd504cbf3de06099U, 0x3e903576U, 0xbdfe3a7bU, 0x3d8e5e8bbdcbeb45U,
  0x3d8a3a9800000000U, 0x3de70baa3d82d24cU, 0xbe793a683dce1d05U, 0x3e592869be260f54U,
  0xbe5ccc87U, 0x3d3174d6U, 0xbdc98a9cbdb6e08bU, 0x3d7008dd3d511149U,
  0xbe7d572f3d8a3d99U, 0xbdcb75e0bda6d4aaU, 0xbd78e10400000000U, 0x3d944e8300000000U,
  0x3dcd205fbdbe9c74U, 0xbd19ec093e087a20U, 0xbdad114eU, 0xbd07d7f4bd0d4826U,
  0x3e11bacdbe3c8651U, 0x3e96d6cc00000000U, 0x3e4c3b3100000000U, 0x3eab14be3dbea3c7U,
  0x0U, 0x3e3534623ea5f9e8U, 0xbda4bf0e3ee0b843U, 0x3de21db0bd9fd413U,
  0xbe2244c9be2c5957U, 0xbe670baa00000000U, 0xbe5911d63e6c2bebU, 0xbdb5814d3e53a51aU,
  0xbe5980e1U, 0xbe64689abe98cf46U, 0x3e6b21b6be6d2b34U, 0x3d92b0153e32cec8U,
  0x3d5556e43dffbec1U, 0xbdaaa4eebe6f1fc0U, 0xbd819fddbd598fc2U, 0xbed055e8bdc4c79aU,
  0x3ec829ea3da6c8e6U, 0xbdb19a323d84c9daU, 0x0U, 0x0U,
  0x3e442cb23eab04d1U, 0xbe90fb3100000000U, 0x3e2acfc23e8de6a9U, 0x3eab14be00000000U,
  0xbda3aa0400000000U, 0x3e3394b0U, 0x3ea9e50600000000U, 0x3de21db000000000U,
  0xbebed0e300000000U, 0xbe26ddc200000000U, 0xbd80a2463dd6b390U, 0x3da88a5900000000U,
  0x3deca442be5980e1U, 0x3d36ba1500000000U, 0xbd744aecbe9d28f7U, 0xbd8c052b3daa8e1aU,
  0xbe9e567d3e8199bfU, 0x3e920838be935dfcU, 0x3d304a0e3e0bdc6aU, 0xbe5aedcd00000000U,
  0x3e256cb000000000U, 0xbde0f683be55efe0U, 0xbe8ce510U, 0x3e23a137be9d786bU,
  0x3e86850c3e16d1daU, 0xbea6f2b500000000U, 0x3e4ff1cb3e40fc42U, 0xbe16f42f00000000U,
  0xbe5b756ebe80afdfU, 0x3e6364e000000000U, 0x3e40343bbea36ebdU, 0x3e515ddcbe8c89eeU,
  0xbd8e6010U, 0xbf07d8a3be1edacaU, 0xbe84a7583ea77794U, 0x3e3f3a83bdb6571aU,
  0x3e8bf702be9ae389U, 0x3e2bfa6e00000000U, 0xbda5bb7eU, 0x3e2005e83e358f02U,
  0x3dbaac083e8bf7f8U, 0xbe10642c00000000U, 0xbddef43e3e0bdc6aU, 0x0U,
  0x3ed216d53e1dd990U, 0xbe88296a3dd5efe0U, 0x3de6c1bdU, 0x3e1747c4be6e69c1U,
  0x3dd4fd53bd77c679U, 0xbd52e1bc3dd92358U, 0xbee0a7823d175c70U, 0x3e56b09e00000000U,
  0x3e364327bd97c8e0U, 0x3eb5346200000000U, 0xbdd4cc1dbe35977cU, 0x3e1fd413U,
  0x3dcc569ebd24db05U, 0x3ea072c5be2b5057U, 0xbe11ff39U, 0x3d9b93663ecec2c5U,
  0x3de6deb100000000U, 0x3dbc19e8bda79903U, 0x3e436f2300000000U, 0xbdfd5eb03da50da5U,
  0x0U, 0x0U, 0x3d86cf383e13a18dU, 0x3dbeae163e49b2feU,
  0xbe6e361c00000000U, 0xbd319a32bdfad29cU, 0xbe3def9100000000U, 0x0U,
  0x3e06850c3e31c078U, 0xbda404e8bd383d05U, 0xbd6da69f3e00a82cU, 0xbdf186b23d99fa70U,
  0xbe62e5e2be8a9604U, 0x3d0e1f0cbdbe76e9U, 0x3d6963febd236ebdU, 0x3dc09e07bd516e2bU,
  0x3d9c423d3de0cd93U, 0xbd2b25163da832f4U, 0xbe4d02a0be1ee109U, 0x3dd6e6a8U,
  0xbdfdf4f63cb88c62U, 0xbe0e6b63bdec9bc8U, 0x3d2b013f00000000U, 0x3da005e800000000U,
  0xbdfd572f00000000U, 0xbd0343cbbe8f3245U, 0xbdee824ebdb2b616U, 0xbe17d67abe311a0aU,
  0x3d1192d8beacbdc9U, 0x3e25fc51U, 0x3e29295dbd318156U, 0xbd208ada00000000U,
  0xbdc42cb23d6d00a0U, 0x3e3e611fbe03994dU, 0x3e01f71f3d722d80U, 0x3d21047600000000U,
  0x3e83fc96U, 0xbd1c555a00000000U, 0x3ddba9683dac831cU, 0x3e7f6d633e28186dU,
  0xbdf668743e85022aU, 0xbe08ea7800000000U, 0x3d80a2463e164a7eU, 0x3e45b5fdbd36571aU,
  0xbdb8b227be388c62U, 0xbde7188400000000U, 0x3dd5c18ebe5c0627U, 0x3d995aff3d67131aU,
  0xbe4b56d100000000U, 0x3e275cd6be58e143U, 0xbe86cf3800000000U, 0x3e1ee6673dec22b8U,
  0x0U, 0xbe28b8e2bd224c0bU, 0x3db80014bd16e123U, 0xbe48ad9100000000U,
  0xbe93218500000000U, 0x3e1e294dbd8a2dc4U, 0x3d411761beb96ad6U, 0xbdeaa230U,
  0x3e4fe106U, 0x0U, 0x3dc7118600000000U, 0x3e844594U,
  0x3df74888U, 0x3d805bd03de67eb6U, 0x3e69261fbe9a95c4U, 0x3d5c66263ec1bc8cU,
  0x3d443d493e071da3U, 0xbd61b8b0bdec9bc8U, 0x3db73831be564f23U, 0xbe26b0d2be6c938fU,
  0xbdc80176be6e770eU, 0xbe6f8eeb3d9bb56bU, 0x3e2b1ab33ef6b302U, 0x3e2d06433e44c79aU,
  0x3dd3be523da0d402U, 0xbe2ea46d3e34bd69U, 0x3da04222be1fc134U, 0x3dcbc3eebebae773U,
  0xbdfc3976bdb1c078U, 0x3d984db300000000U, 0xbd5ecc3500000000U, 0xbde41ba83dcd4deaU,
  0xbdee0e913d532dbdU, 0x0U, 0x3dab9c59bde2fd5bU, 0x3d8f4b61U,
  0x0U, 0x3e3c4265be12653cU, 0xbda0cad83e300e1fU, 0xbd288a593d8f4470U,
  0x3e443d49bd910096U, 0xbe878e95U, 0x3db11cb800000000U, 0x3e695df33e1cccf6U,
  0xbd85564e00000000U, 0xbd10962cU, 0x0U, 0x3e062ea7bd09beecU,
  0xbdb946883e29c357U, 0xbe8f8fd73db86dafU, 0x0U, 0xbe76fd013d6b7840U,
  0xbd372365U, 0x3e9aa0edU, 0x3e1fabf3be31d96aU, 0x3e27b9fbbdf1f742U,
  0x3d85e8323db22e97U, 0x0U, 0x3d6963fe00000000U, 0xbea34e5400000000U,
  0xbdac5957U, 0xbd917920bd82d24cU, 0x3e550cc4bd9a95c4U, 0x3e56e6a8U,
  0x3de0182dU, 0x3d911b4d3d58e422U, 0x3e4c98593da0047aU, 0xbe12b0153df79478U,
  0xbd912714U, 0xbe2aa4eebe378387U, 0xbdf8e10400000000U, 0x3da97e4c3ed389c5U,
  0xbdc6826d00000000U, 0xbdb19a323e1e9bc5U, 0x3dd971a4U, 0xbe393dc1be309a30U,
  0xbd623ac8U, 0x3da404e8be76bf70U, 0x3d9488233e2e10b4U, 0x3d862e63be374eb6U,
  0xbe1110e03eaee1e1U, 0x3e15a692U, 0x3e05db3b3dc7c03cU, 0xbdfb3d6ebe818421U,
  0xbdf74888U, 0x0U, 0x3e639560U, 0x3e220ee0bea12cfeU,
  0x3e3bd808U, 0x3dc6d98fbec03e92U, 0x3e744aec3dfb74bfU, 0xbe235b5d00000000U,
  0x3e9b854cU, 0x3e2414bd3e0b068dU, 0x3d3aa8c300000000U, 0xbd61fdbb3d9d6c7bU,
  0x3e570d4bbda6c8e6U, 0xbd551f6f3d9aeb7fU, 0xbe49ce8a3dba6168U, 0x3e864cc500000000U,
  0xbd769e96bd2197b3U, 0x3e5fb7cfU, 0x3ddecc35be501f1aU, 0xbdc945943d2ff9a4U,
  0xbe0de2bbU, 0x3e0703e5bdd9ac78U, 0xbdb279a4bdd9e8fcU, 0xbef4f57e3d9fd413U,
  0xbd7065e83e86e1beU, 0x3e0d31cc00000000U, 0x3dd107b2bf0855ddU, 0x3d8820f9bdb6571aU,
  0x3e104b2ebe5980e1U, 0x3d56f90a3d8029b7U, 0xbe75bdbbU, 0xbeabb101bdc08febU,
  0xbe2d56993ed8003fU, 0xbdc4e5b03df4af5fU, 0xbdca36d3bd78a44bU, 0xbe772d8500000000U,
  0xbdb2a8953e65543cU, 0x3de0f6833d5d506cU, 0xbe0294b43da4313dU, 0x0U,
  0x3dda98343e7d2966U, 0x3ea624beU, 0xbe0d1aee00000000U, 0x3e103eaabe33a42dU,
  0x3eaed2b23e777999U, 0x3e103576U, 0x3e47c03cU, 0xbd7b3d6ebea134cdU,
  0xbdae49e1beedeaa2U, 0x3def9a5200000000U, 0x3e550cc400000000U, 0xbe7991c900000000U,
  0x3dca02db00000000U, 0xbe065ba6bd58e422U, 0xbe81c7cdbdc24e94U, 0x3d8c052b00000000U,
  0x3e7001c0bedb74fcU, 0xbde40081U, 0x3e997566U, 0x3df01d973d6c22b8U,
  0x3dfb720100000000U, 0xbe7e9036bdf37210U, 0xbd3210983e16e123U, 0x3e23a1373db67d31U,
  0xbde5cdf43ea03ef8U, 0x3e7be2f63e81f42fU, 0xbec88daeU, 0x3e9f5715be03fb3bU,
  0xbe3db39c3d6d9375U, 0xbdb1a6cfbe23415aU, 0xbdd4cc1dbd9145fdU, 0xbe7f6d6300000000U,
  0x3e8136c63dc2d44cU, 0x3e33b3be00000000U, 0xbef29cd3U, 0x3df77636U,
  0x3d8a859d3e52e994U, 0x3e315a4100000000U, 0xbe3738313da0047aU, 0xbe435026U,
  0x3e12abbdbe03541eU, 0x0U, 0xbe8054063e041748U, 0x3e297e4c3e8eaa4fU,
  0x3dc6826d3e818e57U, 0xbd8e14f43eea3961U, 0x3defa1ceU, 0x3dfd29bbbdfd2145U,
  0x3d54fd533ddcd7dbU, 0xbe984db33ec0769aU, 0xbdfc81093dea9c14U, 0xbe098925bea6cf4eU,
  0xbde69e1c00000000U, 0xbe853d1b3d3905ccU, 0x3e8a76b5U, 0xbdea7d9a3dbb6292U,
  0x3d8e6010U, 0x3e33b3bebe4a7638U, 0x3e20cad8bd8968aeU, 0xbe04e33d3e9c4aa9U,
  0x3e558dfd00000000U, 0x3d865ba6bdbb50a9U, 0xbec1e84500000000U, 0xbe5c082000000000U,
  0xbe3e0163bdc872eaU, 0x0U, 0xbda5eb583e232bd1U, 0x3e3b261f3ea4cd91U,
  0x3da56cb000000000U, 0xbd60f6833e3fce3bU, 0xbe20422200000000U, 0x3eb31107be0d4826U,
  0xbe1fbdfebe8ab347U, 0xbe940c76U, 0x3dd3e7d0U, 0x3e4ffb1900000000U,
  0x3e1ff1c93da4fbbcU, 0x3e4a85d8be5f1d94U, 0xbdab9c5900000000U, 0xbd85fea13e4929d2U,
  0xbe2e49e13db3d7a8U, 0x0U, 0x3e20cad8be964a7eU, 0x3db6571aU,
  0x3d904b2e3e69fb20U, 0xbe1e8add00000000U, 0x3e9727f5bd9a4d75U, 0xbe2d5bbc3e48d09aU,
  0x0U, 0xbe2aa4ee3e299c79U, 0x3d598fc2U, 0x3d862ea7bd9d6c7bU,
  0x3e894d693dd07b1fU, 0x0U, 0x3d3def913e7411d7U, 0xbec40c06be1bffaaU,
  0x3eaaf3bfbdbc8651U, 0x3e89a8b03eab1417U, 0x3e83d26c3d80a82cU, 0xbdc2900fbe897b08U,
  0x3e4524103d7ac650U, 0xbe5fd74c00000000U, 0xbec0343b3ed0d49cU, 0xbe1f1e5f3d7d855dU,
  0x3dae49e100000000U, 0x3e2832f4U, 0x3df93a683dabc2daU, 0xbe0820f9be809d70U,
  0xbd7269d3be7dc106U, 0xbe51993600000000U, 0x3eb738313e149671U, 0xbd8c052b00000000U,
  0x3df6ac7800000000U, 0xbe483265U, 0xbde423993e4622ecU, 0x3e87f2a200000000U,
  0xbe14e1d200000000U, 0xbe0c2a66U, 0xbe677bf9be099109U, 0xbd76fd0100000000U,
  0x3dda98343e474c2aU, 0x3ecf44a5U, 0xbe175c70U, 0x3e1a4ef2bda8a492U,
  0xbde06099U, 0xbe037652be6f70eaU, 0x3e026c963e35977cU, 0xbe8c4691bdd6f111U,
  0x3e465412be301880U, 0x3df828fabd9582a0U, 0x3e4d02a0be5afed5U, 0x3ec69ee1U,
  0x3e9e2f2fU, 0xbe3ec9d23d8a058aU, 0xbe0c77e1be424e94U, 0x3d2d5bbc3db58f02U,
  0xbe12abbdbe756089U, 0xbe4b75e0bdb78387U, 0xbdba7b38U, 0x3df01d973ed5ff77U,
  0x0U, 0xbeba7b81bd8c2a66U, 0xbd434179U, 0xbe424335U,
  0x3db72365U, 0x3ea47fa0U, 0x3d7c8109be957815U, 0x3e641ba8be584d84U,
  0x3d9e624eU, 0xbdb1a6cf00000000U, 0xbe3956f000000000U, 0x3e558dd1bd3b6292U,
  0xbd28475500000000U, 0x3e9c2b713e18a003U, 0x3da8d4fcbeabc2daU, 0x3d8e9c733e70f31aU,
  0xbd388c62U, 0xbe5c58dd3e8c7c7fU, 0xbe834eacbdf006b6U, 0xbed3b27cbdcb90d4U,
  0x3e8200f300000000U, 0xbd96f45c3d5351a4U, 0xbdd9c4e400000000U, 0xbdbaf0d2U,
  0xbe46826d3d830b90U, 0xbdd51f6f00000000U, 0x3d9b512cU, 0xbe0d4826U,
  0xbd9755ae3db1c078U, 0xbe184db33dd28ee1U, 0xbeb9aa2c3d722d80U, 0x3e7b96f9bee8ccecU,
  0xbd2b952aU, 0x3e3fdd1dbe56f3e9U, 0x3d0949e1be2c831cU, 0xbe46685fU,
  0x3de460cf3d8e6010U, 0xbd3ae348U, 0x3e34e432be300e1fU, 0xbe2bc816be672e6fU,
  0x0U, 0x3d93e15dU, 0x3db11cb83d4dbc9cU, 0xbec807633dfd14ecU,
  0x3dbaac083e60a418U, 0x3d0343cb3d0576eeU, 0x3d6e824e3e270e62U, 0x3cfe3d723e75f980U,
  0x3e030b90U, 0xbe348ff700000000U, 0x3e14a91fU, 0xbd5fb23dU,
  0xbe308ea03dd21203U, 0xbd927218bdbed17cU, 0xbdf513d4bd975c70U, 0x3d641ba800000000U,
  0x3eec3274bdbf6173U, 0x3e2a8ba83db394b0U, 0x3e3279a4bd59e8fcU, 0xbdd9bdc63d516e2bU,
  0xbe0739523e0aa0e7U, 0x3db3b3be3d4758d5U, 0x3ea0cad8bebaca4dU, 0x3e8006a13e99091bU,
  0x3d388c62U, 0xbdb15a4100000000U, 0xbdb11cb8beb572caU, 0xbe195affbda50da5U,
  0xbe12abbdbe850e7dU, 0xbe2aa4ee00000000U, 0x3e76495700000000U, 0x3db08e3abd89beecU,
  0x3e0107fabd6259caU, 0xbe8b1f2f3d4e8f54U, 0xbda6319f3e0e0112U, 0xbdc59734be818223U,
  0x3e8ab9343d8c0c02U, 0x3e140c76U, 0xbdc11761be1eeddcU, 0x3df94c53U,
  0x3e1c398fbea1af05U, 0xbe2e2393U, 0x3eac831cU, 0xbe277e49bdfd855dU,
  0x3d8a3a983ecc3232U, 0x3dcd5fb43db4a881U, 0x3d98c0b300000000U, 0x3eb7f7e2U,
  0x3e388c62U, 0xbe87b39b3e0517a0U, 0xbdb11cb83e037164U, 0xbebe07043e384f3dU,
  0xbe9cabcfbe44fe2dU, 0xbd9d848dbdd351a4U, 0x3e3fd81ebe4622ecU, 0x3ed219e400000000U,
  0xbdee361c3e7a2d58U, 0xbe92859c00000000U, 0xbe1a52a600000000U, 0xbe7a2fc4U,
  0x3d335c103e814629U, 0x3da404e83e8bd2e1U, 0xbdb23cf7be8de6a9U, 0xbe3bda8a00000000U,
  0xbe504cbfbe24fbbcU, 0x3ddc49b9bdf4e207U, 0x3e70414abe0cbbcdU, 0xbed15ddc00000000U,
  0x3dcc569e3e594f41U, 0x3e33b3bebe5d268cU, 0xbd80a246be987021U, 0x0U,
  0x3e949f5b00000000U, 0x3e13e15dU, 0xbeba45ed3ddee1a9U, 0xbe695df33d5c1232U,
  0x3e30abf53dba9ff5U, 0xbe9f28993d9625ccU, 0xbdbfd81ebe89eb22U, 0xbe80e2b53f025dd6U,
  0x3de259caU, 0x3dfe9036bd5d506cU, 0x3db8001400000000U, 0x3da08adabda4d42dU,
  0xbda8264f00000000U, 0x3e7be2f63d7a09abU, 0xbe267f48U, 0x0U,
  0xbdcc944fU, 0x3ed1a0febdb905ccU, 0x3e85db3bbf102371U, 0xbe4d2de73e09c87bU,
  0x3d9c423d3ebd358fU, 0x3ee70baa3d82d24cU, 0xbdd911d6be8fd996U, 0x3e8f4470U,
  0x3e04c00c3e0db4efU, 0x3e18cf46U, 0x3e4c9859be9328b0U, 0x0U,
  0xbe06c8dbU, 0xbda414bd3db1f3e8U, 0xbe653775U, 0x3dfe3d72bdb11a0aU,
  0x3df4d40f00000000U, 0x3e0e14f4bdb10d23U, 0xbe618c7c3e6019b0U, 0x0U,
  0xbe54fd53bd2197b3U, 0xbd76075cbe140c76U, 0x3d323cf73eaff50fU, 0x3dae6f8000000000U,
  0xbe3db39cbe3c14bcU, 0xbdbfdd1dbe3394b0U, 0x3d5ba9683d59e8fcU, 0x3d6779c4U,
  0xbd7c6b003dac5957U, 0xbe8f5576bd792f0aU, 0x3e8b8e51U, 0xbd5d69c5U,
  0xbd38b227bea81222U, 0xbe0bbb79be0517a0U, 0x3d436f2300000000U, 0xbe26b0d200000000U,
  0xbe48017600000000U, 0xbd26d4aaU, 0xbe4f662e00000000U, 0xbe42360dbdf5f980U,
  0x3e6e361cbdb2b2adU, 0xbdf2b9223d138af2U, 0xbd946329bd852101U, 0x3e459734bdb67d31U,
  0x3e09527c3dc74c2aU, 0xbd9e294d3d1deb29U, 0x3db23cf73e31d96aU, 0x3e164fe7U,
  0x3dd04cbf3e0a9604U, 0xbd7fd17c3d985f21U, 0xbdb279a43d59e8fcU, 0x3d05fea1be28186dU,
  0x3d42d44cU, 0x3dab2516bd2e6dbaU, 0x3d9a95c4U, 0xbdc2784000000000U,
  0x3de1192000000000U, 0x3d213ac700000000U, 0xbdc98a9cbdd92aa5U, 0xbd300e8eU,
  0x3d5556e4bec6b88cU, 0xbe0343cbbd26d4aaU, 0xbe0966e53d1b66afU, 0x3dc5be04bd7fd048U,
  0xbe2f599c3dd07b1fU, 0x3d3d7146bd04c9daU, 0x3d49ce8abd4c218aU, 0xbe1747c4bdd3ec39U,
  0x3dac5d8cU, 0xbd9e294d3e737534U, 0xbe148823bef04925U, 0xbd3bda8abdeaa230U,
  0xbdee0e913e97c8e0U, 0xbe11aca000000000U, 0x3d90272c00000000U, 0x3d9a512dU,
  0x3e0e6010U, 0xbe08ea783e2832f4U, 0x3d713043bdbcefefU, 0xbe2f05d33e19091bU,
  0x3e834ea8be144c3cU, 0xbe5199363e3662c0U, 0x3e467ce0be78993dU, 0x3d898b5fU,
  0x3e2d5699bd25e384U, 0x3d6c46d33ea2a8f2U, 0x3e59c4e43d8bdc6aU, 0x3e61fdbb3e44c79aU,
  0x3e506f5900000000U, 0xbe310d23U, 0x3e8118d53e075905U, 0xbe4eda4a00000000U,
  0x3e014629U, 0xbdc14eedbdab1417U, 0xbdc117613df9beecU, 0xbd13996d3e28a492U,
  0x3d328aedbced9375U, 0x3e23415aU, 0xbd24bf0e00000000U, 0x3da77e49bd2556faU,
  0x3e1940f7bd95de62U, 0x3dae6dbaU, 0xbe08ac6a3d5f4a1bU, 0x3e1ed123bdbcda37U,
  0xbd9610c000000000U, 0x3de2bff5U, 0xbe0f859e3e037164U, 0xbde95df33d040aeaU,
  0xbea0012b3e1efa09U, 0x3df96734be02af1eU, 0xbdd9c4e43df8a44bU, 0xbe308e3a3d09beecU,
  0x3d9830cbbe7732e6U, 0xbd6ccd983db10d23U, 0xbdcfbe07be00b0f8U, 0x3e24d42dU,
  0xbd335c1000000000U, 0xbd52e1bc00000000U, 0xbe2e865d3d35a220U, 0xbe4945943da14f81U,
  0xbd504cbfbe1e624eU, 0xbdb8c1f6bdae2393U, 0xbe9a731dbdd9e8fcU, 0x3dd9bdc6bd7d855dU,
  0xbe103d24bdb3d7a8U, 0x3d88ea78bdcd939cU, 0xbda0cad83d0968aeU, 0x3d81a580bdf0f31aU,
  0x3d84c00cbe6d46c6U, 0xbdb15a413e4f084fU, 0x3e65063d3e1771f3U, 0x3e3406a6be0f0bd3U,
  0x3d995674be372b37U, 0xbdbe557fbdfa3efeU, 0xbe6952f4bdd1ca9fU, 0xbe1d6c7bU,
  0x3e2f599c00000000U, 0xbe110aba3e0c2a66U, 0x3d49ce8abe57399fU, 0x3e550704bdd9cf3bU,
  0xbda28b6ebe521203U, 0xbe4a18543dab1417U, 0x3e05adb9bd35a220U, 0x3da104763db74eb6U,
  0xbd328aed3df42ce3U, 0xbdce136b3e25f9e8U, 0x3e7dfbe0bdd0d49cU, 0x3e621db03d2556faU,
  0x3e0d3bde3d60cd93U, 0xbd5e7d033e7f69d1U, 0xbe9cc5c53e0db3f3U, 0xbd4f6f33be15c78dU,
  0x3e4a02db00000000U, 0x3d167b20bea5220eU, 0x3ea4e5c63e092868U, 0x3e30b1313e5c1232U,
  0xbe0200f33e0a3d99U, 0x3e4afa35U, 0x3dd495893db2b616U, 0x3de1fdbb3e9af6c9U,
  0xbd53be523d6e4391U, 0xbe66e20dbd5d506cU, 0x3df35af200000000U, 0xbdb31107bde5953eU,
  0xbd6b68d53e198351U, 0xbde64c46U, 0x3e1fabf33ddb793cU, 0x3dae6f803d92a55eU,
  0xbe62e5e200000000U, 0x3cffd17c3e25f9e8U, 0xbdbeabdcU, 0xbe6ead8fbe09c87bU,
  0x3de84be4U, 0xbe9a07c73dda0929U, 0xbdd107b23e52684aU, 0x3e62e1a03d50638cU,
  0x3d9797e2U, 0xbd967b20bdf6779bU, 0xbd1eca4c00000000U, 0xbe055a423dd11149U,
  0x3de418d6U, 0x0U, 0x3df3b1a9bd1b66afU, 0x3de1fdbbbdc4c79aU,
  0x3d0456f300000000U, 0x3d9fd79300000000U, 0x3d6d6b753e6fa1ceU, 0x3d5e4a1a00000000U,
  0x3e14883dbe0ebd78U, 0x3dc72a873e98fbcfU, 0x3db9aa2cbe2a47feU, 0xbe60c0e53e3ea3c7U,
  0x3e9e15acbda4fbbcU, 0xbea6fe143e23415aU, 0x3d4deed23e27f8edU, 0xbd59bdc6bd9a512dU,
  0xbe374db4be6c0b0dU, 0x3e1179203d9582a0U, 0x3de9261fbd4e1d05U, 0x3d6a6ffeU,
  0xbe806bdf00000000U, 0x3d80fbd200000000U, 0xbd92935abdcdbc9cU, 0xbe1cb0743eaeae71U,
  0xbd98108fU, 0xbe626e8a00000000U, 0xbe3d40703e4de80eU, 0x3e1b5e713effd048U,
  0xbd9ecebe3dc49158U, 0xbeaea46d3de4b0f8U, 0xbd318156U, 0x3e07d7f4be8a56a5U,
  0xbe8250e43d96d1daU, 0xbe29e0823e86e388U, 0xbeca7209U, 0xbe062e63be92a55eU,
  0xbe2b952aU, 0xbeba88c000000000U, 0xbe1de1c33ecc4a6cU, 0xbe16be75bda556faU,
  0x3e4f57e4be6c0b0dU, 0x3e670baa00000000U, 0x3da0cad8be56b390U, 0xbdc8f3b93ea2cdc5U,
  0xbdcfc86c3e73de13U, 0xbe8bbb793dcf084fU, 0xbde1f880be4dbc9cU, 0xbeaa06473e6452e0U,
  0x3e340150be25e384U, 0xbe3b0d673e18ed9bU, 0xbe3a7b38U, 0x3e341631bde24bf1U,
  0x3d9adf1eU, 0xbe6ccd98be523f9aU, 0xbe64843abdc34179U, 0xbe56ddbaU,
  0xbe41e93eU, 0xbe2cce503ed0e9c3U, 0xbd7c81093da67f48U, 0xbe9bcfb4U,
  0xbea3aa04bd6d9375U, 0x3e5c49b93dae2393U, 0x3e954d253dd0d49cU, 0x3e409e0700000000U,
  0x3e5e5e433d6fca36U, 0xbe6f9a523dff69d1U, 0xbe28d4fc3e8968aeU, 0xbe4f6f3300000000U,
  0x3dca02db3e66af7aU, 0x3e61b8b03f1c81b6U, 0x3eb2a3963d837164U, 0x3d92b0153d9f8d31U,
  0x3d9956743e8199bfU, 0x3ed062053e4dc204U, 0xbe304a0e3de154e4U, 0xbeb25236be8eaa4fU,
  0xbe8af4e63d7a2d58U, 0xbe023de03e772256U, 0xbd852101U, 0xbe45973400000000U,
  0xbd769e963de79db4U, 0xbd10c23bU, 0x3dd75f003e630aa8U, 0x3d4d4deaU,
  0xbe57bd33bd1e624eU, 0xbdb1a6cf3e2e2393U, 0x3d4deed2bd9a5a5dU, 0x3d5c73f8U,
  0x0U, 0xbe1e4f1bbe72f444U, 0x3d611bfa00000000U, 0xbd9517edbd36571aU,
  0x3d2d27053ec5bafbU, 0xbe6c9bc8U, 0xbd1eca4cbd9a4d75U, 0xbe2a8e1aU,
  0x3e08abaa3eb72b37U, 0x3e6c46d300000000U, 0xbe2883053da32bd1U, 0x3df72d8500000000U,
  0x3e82af77be3e9c74U, 0xbd0e14f43e0c2a66U, 0x3dc3df0e3d80b0f8U, 0x3dfd29bb3dfd2145U,
  0xbda8264fbe679db4U, 0x0U, 0x3e35f392be0fcb04U, 0x3e60c0e5be03fb3bU,
  0x3e23aa04bdd32dbdU, 0x3df8b65500000000U, 0xbdec11bbU, 0xbd7b3d6e00000000U,
  0xbe04380c3dd1d0efU, 0xbda832f4U, 0x3d713043be4e1d05U, 0xbd695d1900000000U,
  0x3e5b538ebe03d1fcU, 0xbe340a2b3dc52c7cU, 0xbe892868U, 0xbd8f0bd3U,
  0xbe295842U, 0xbeaf91123dde70e2U, 0xbe2b1ab33e2af0f4U, 0x3e188117U,
  0x3e894d69bd32b2adU, 0x3ebbf663bdec1184U, 0xbdff39eb00000000U, 0x3dde4a1abd53ec39U,
  0xbe11bacd00000000U, 0x3dea50263e213564U, 0x3d975c70U, 0xbe5d662300000000U,
  0xbe2b1a783dd9c72bU, 0x3ee19e16bdc3e805U, 0x3dac831cU, 0x3ee64da500000000U,
  0xbe774888U, 0xbed5ee5c3d8f47d9U, 0xbef535553e9a95c4U, 0x3ec8f3b93e63ece1U,
  0x3e834ea83e144c3cU, 0xbdec785700000000U, 0x3e15a11700000000U, 0x3e7d14ecU,
  0x3ed3ac36bdf1ebccU, 0xbe135dfcU, 0x3e38111600000000U, 0xbda26e5ebe188117U,
  0x3ea8bba93e4196e6U, 0xbe94007fbd5d506cU, 0x3e3af7d33e099109U, 0xbe393dc1bebae773U,
  0x3d9c34c7U, 0xbeb9fc6b00000000U, 0xbe8b3fa1bd883998U, 0x3e3525053da14f81U,
  0x3e0a9604U, 0x3e8c584200000000U, 0x3e215068be981545U, 0x3e516e2bU,
  0x3e133e6b3e5d0e6aU, 0x3e5e7d03be0c2a76U, 0x3e5107b2beabc2daU, 0x3e0820f93e1285feU,
  0x3d7269d33e281222U, 0xbd967b20be279903U, 0x3db11cb800000000U, 0xbdceb24c3e9f8d31U,
  0x0U, 0xbd5f26723d90962cU, 0xbe51ca9fU, 0x3e89beecU,
  0x3de0fa37bdbe9c74U, 0x3d99ec093e138af2U, 0x3da04222bda4313dU, 0x0U,
  0x0U, 0xbe21171a3e1756b2U, 0xbd6da69f3e35a220U, 0xbe9546cebe33a42dU,
  0xbe452410be9b1597U, 0x3e896812U, 0xbd970478bd6c11bbU, 0xbe4beb45U,
  0xbe1f43833dd94f41U, 0xbdde7d033e21f82dU, 0xbea4cfea3e0db3f3U, 0xbe3cda37U,
  0x3dc43d493d7a7560U, 0x3e56f90a3ef189b2U, 0x3e910c7cbe8d71acU, 0xbea0ed4eU,
  0xbdbaac0800000000U, 0x3eb09000U, 0x3e5c5c9100000000U, 0xbec07211be1395b3U,
  0xbe0e43df00000000U, 0x0U, 0xbe8a000fbe266941U, 0x3d6aa38ebdbc6033U,
  0xbe2558df00000000U, 0x0U, 0x3db23cf73e5b793cU, 0x3dcffb19be19fa70U,
  0x3e8d58a63e1e624eU, 0x0U, 0x0U, 0xbebe860dbe6a3b37U,
  0xbdf065e8bd7ec6d9U, 0x3e56ebc6U, 0xbe45867aU, 0x0U,
  0xbe3b94f0becdf81bU, 0x3d8bbb7900000000U, 0x3e0040efbd6498aeU, 0xbe2d4e54U,
  0x3d99567400000000U, 0xbeb2d92a3def1fc0U, 0x3e041748U, 0x3dc5be043e89beecU,
  0x3dd3be523dacbdc9U, 0xbd551f6f3e973b39U, 0x3e2042223e55019bU, 0xbd81ab3abdd9cf3bU,
  0x3e7c397600000000U, 0xbe414eed3d4565f3U, 0x3d80a82cU, 0x3d6aa230U,
  0x3e39fb613d6d9375U, 0x3d0e1f0cbe185f21U, 0x0U, 0x3e61f6deU,
  0x3d963fb1be4e11c6U, 0x3e97e41d3d4758d5U, 0x3d30df203e11ff39U, 0xbea3adbe00000000U,
  0xbe834ea800000000U, 0x3d2bfa6e3d9dbd30U, 0xbe289700U, 0xbe0f5aa0bd3b0f77U,
  0xbe20012bbdc872eaU, 0xbe2ded063da6d4aaU, 0x3e426fcbbd9b66afU, 0x3e862ea7bda74343U,
  0x3e6e361c3dc49158U, 0xbe0b1f2fbd84c9daU, 0xbe794a6e3ddde1acU, 0xbe3f51b4U,
  0xbdcf6272bdd21203U, 0x3da404e8be421bb7U, 0x0U, 0x3e21047600000000U,
  0x3d8d58a600000000U, 0xbe7fd17c00000000U, 0xbd771e953e67878bU, 0x3ea1365abda556faU,
  0x3e103d2400000000U, 0x3d9a07c7bd6cb97dU, 0x3df90dbbU, 0x3e6fd893be36571aU,
  0x3d904b2ebdc5bafbU, 0xbd967b2000000000U, 0x3e5eeac400000000U, 0xbda005e800000000U,
  0xbec801763e59ba9eU, 0xbe9789b4U, 0xbdab1ab300000000U, 0x3e5d608dU,
  0x3d7b7201be060602U, 0xbd49485abd8c2a66U, 0xbe8118d500000000U, 0x3d87d7f4bdc24335U,
  0x3eb1f5583e16d1daU, 0x3d6a50263e63020bU, 0xbdf22d80U, 0xbd8ce3e8be897b08U,
  0x3e0d58a63e322e97U, 0xbe552e9200000000U, 0xbe05db3bbe47c03cU, 0x3d8e5e8b00000000U,
  0x3e9940f700000000U, 0x3dbc42653dd3ce62U, 0x3e5911d6be67e0a6U, 0xbdfdf953U,
  0xbddb538ebe52e994U, 0x3dbb50a9U, 0x3e9a35b23dab7282U, 0xbe44b1eebe74d43dU,
  0x3e480176bdf1ebccU, 0x3e626e8a3dd8e143U, 0xbd8bdc6aU, 0x3f1c31a2U,
  0x3dee361c3e11efc9U, 0xbdb10d23U, 0x3dac211b3de6c1bdU, 0xbe4eda4a3e1ef12bU,
  0xbe95eef500000000U, 0xbe0c967e3d6ce0bdU, 0x3d4ff1cb3e2e10b4U, 0xbdbea3c7U,
  0x3e5b756ebe9b1597U, 0x3e58bc263e46a094U, 0x3e54cc1d3db5977cU, 0xbd9f1e5fbdd6f111U,
  0xbd7065e83e5d0e6aU, 0x0U, 0xbeabc2daU, 0xbdfccf863e469ee1U,
  0x3eb740c33d388c62U, 0xbeaaa2793dd8e422U, 0x3ddbdd0700000000U, 0xbd855a423db58f02U,
  0x3e71ebccU, 0xbdb7c54f00000000U, 0x3e2353ab00000000U, 0x3de90da900000000U,
  0xbe4333743e478bc9U, 0x3db785bc3dfad29cU, 0x3e075905U, 0xbdc24335U,
  0xbe09527cbe16d1daU, 0x3d2fbc1d3d8a2dc4U, 0x3d630aa8U, 0xbe9bfc53bddbf80dU,
  0x3d7ac650U, 0xbe4a85d8be25f9e8U, 0x3db956f03d9145fdU, 0x3d48fdf2be802368U,
  0xbe766874be199d8bU, 0xbe2f6c6abec5ca23U, 0xbda0cad83e277794U, 0x3e3bfcc6bdc9e070U,
  0x3e5e3657be31f515U, 0xbe2bfa6ebe53f638U, 0xbdc80598U, 0xbe3406a600000000U,
  0xbdceac2dbe4872eaU, 0xbd6c46d300000000U, 0x3dcf662e00000000U, 0xbe6c95a0be04d388U,
  0x3e933a553de259caU, 0xbe3785bc00000000U, 0xbd8e73ad3e02e8fdU, 0xbe23a13700000000U,
  0xbd9cf08e00000000U, 0xbe80df483dab1417U, 0x3e183ebe3e1eeddcU, 0x3e13996d00000000U,
  0xbe0d58a6be0de2bbU, 0x3e1c555a00000000U, 0xbda4bf0e3db5977cU, 0x3e96be753e962f01U,
  0xbe04380cbde84be4U, 0xbe805bd03d9582a0U, 0xbdc0f3693e164a7eU, 0xbd5c662600000000U,
  0x3e01dd4300000000U, 0x3e8bbb793e13e15dU, 0x3e436f23bd9a4d75U, 0xbd4807633dcb90d4U,
  0x3e1956743e226ec7U, 0x0U, 0xbdd9c4e4be0bdc6aU, 0x0U,
  0x3e1830cb3d4a863bU, 0xbdec1184U, 0x3ebc73b2bd899109U, 0x3dcbc3eebdc24335U,
  0xbd4caf16U, 0xbe6a502600000000U, 0xbe396ad6U, 0x3e13996dbd83fb3bU,
  0x3d504cbf00000000U, 0xbdc6f8443e59ac78U, 0x3d9a5a5dU, 0xbeddedbbbe46685fU,
  0xbdac5957U, 0xbd805bd03dbae348U, 0x3eff4203bd4e1d05U, 0xbe04e33d3d36571aU,
  0xbd84c00c00000000U, 0x3e3ec9d200000000U, 0x3d9a4d75U, 0xbebc5c4a3dcb90d4U,
  0xbe4156bfbe8199bfU, 0x3d9d848d3dbd1326U, 0xbde423993e2af0f4U, 0x0U,
  0x3de0fa373e91efc9U, 0xbe987126be25fc51U, 0xbdd09192U, 0xbe4eda4a3e24d42dU,
  0x3e198351U, 0x3e73198ebd9deb29U, 0xbea49aedU, 0xbeb57971U,
  0x3de69e1cbe8c3c60U, 0xbdb1a6cf00000000U, 0x3d3279a4be59e8fcU, 0xbe4d2de73d516e2bU,
  0xbda4db05U, 0x0U, 0xbeea0648U, 0x3d76540dbd50638cU,
  0xbd38b2273d910096U, 0x0U, 0xbda0047aU, 0xbe08afb7be1a0cbcU,
  0x0U, 0xbe5bde5a3d90962cU, 0x3dd1ca9fU, 0x3ee039c03e8c349eU,
  0xbd60fa373e4d80adU, 0x3d551f6f3e25fc51U, 0xbdc34179U, 0xbe85ec64U,
  0x3e38f6f000000000U, 0xbdab1417U, 0xbd4117613e175c70U, 0x3e84810200000000U,
  0x3dee0e913e322e97U, 0xbe029aaeU, 0xbe43a2e1bd88319dU, 0x3dd15ddcbe94ce47U,
  0x3d7065e83d8e6010U, 0xbe6b52febea1f82dU, 0xbe04a7583e5f4a1bU, 0xbe35814d3e057fc6U,
  0x3d443d49be217ad5U, 0xbd6c78573e3174d6U, 0x3e91baefU, 0x3dbab18fbd300e8eU,
  0xbdc801763e3a9ff5U, 0xbdaaa4eebe0b068dU, 0xbea353ab3e17841eU, 0xbe90c68cbe7ae4e4U,
  0x3e1ecebebe3e9c74U, 0x3e138af2U, 0xbe7f39ebbe0e0112U, 0xbd2ce44ebe3f51b4U,
  0xbe3471efU, 0xbe2b1417U, 0x3e4ff1cb00000000U, 0xbd56b09e00000000U,
  0xbe7cef7abd2b952aU, 0xbe05533dU, 0x3d5ba9683de2fd5bU, 0x3dfb3d6e3e120cd4U,
  0x3d1c423d00000000U, 0xbeb5d7673e82d24cU, 0x3d71304300000000U, 0x3d4f6f3300000000U,
  0xbdeca442bd45bafbU, 0xbd80fbd2bd3174d6U, 0x3e21d8093e61bd2cU, 0x3e224d6bU,
  0x3e6957093e06c8dbU, 0x3e920838be483265U, 0xbe5ef43e3d9b66afU, 0x3de90da93d1d6c7bU,
  0x3e0af4e600000000U, 0x3e08296a3e437e81U, 0x3e64843a00000000U, 0x3e111b0a3dd3ec39U,
  0xbe796c06be751503U, 0xbe5bab243e63020bU, 0x3d6da69fbd883998U, 0xbd7ef1bc3d4d4deaU,
  0xbe022ff7bd7ac650U, 0x3e46f8443e9702d9U, 0xbde963fe3ea5b3d5U, 0x3ed58dd1bdfd855dU,
  0xbd6fca36U, 0xbe4d5fb400000000U, 0xbe28d4fc3e164a7eU, 0xbd9b93663e56e6a8U,
  0x3dd58dfdbe3bd808U, 0x3da69a9bbe0a058aU, 0x3e0c77e100000000U, 0x3db406a63ddc1232U,
  0xbe8f56613eb3b67aU, 0xbddf2672bdc83265U, 0x3d965d483de91a06U, 0xbdcccdf13e09beecU,
  0x3e71851600000000U, 0xbe0533a5be04c9daU, 0x3d8e73ad3d66c1bdU, 0xbe5cc0bcU,
  0xbd769e96bda197b3U, 0x3d52e1bc3e9756b2U, 0xbec2e09dU, 0xbd7186b2bea324c5U,
  0xbe57bd33be6d9375U, 0xbeaa8ba800000000U, 0xbe4711863eaec834U, 0xbe9d0665bdb5dfacU,
  0x3d95de62U, 0x0U, 0xbea77794U, 0x3d81a5803e33158cU,
  0x0U, 0x3e03abbc3e0a058aU, 0x3dbd53aa3d6498aeU, 0xbe0f5aa03d511149U,
  0x3e8a565800000000U, 0xbd79673400000000U, 0xbe3fd81e00000000U, 0x3d61fdbb00000000U,
  0x3dbfe47a00000000U, 0xbde0f68300000000U, 0xbe7f39eb3e5de1acU, 0xbe5b33bebe424335U,
  0xbcf69e9600000000U, 0xbe414eed3e004f11U, 0x3e6282d000000000U, 0x3cf186b23d99fa70U,
  0x3d416bd6bced9375U, 0x3de364e0bde9ffceU, 0x3d90272c3dd9e8fcU, 0x3d277e493dc0e579U,
  0xbe163fb1be85022aU, 0xbe2f6c6a00000000U, 0x3e14bba1bcf07730U, 0xbde2e1a03e057fc6U,
  0xbdbe77b83de6af7aU, 0x3e03abbc3d9dbd30U, 0x3e2b013f3d837164U, 0xbe2005e800000000U,
  0x3e4b56d13e149bd1U, 0x3dcb75e0be26d4aaU, 0x3e1e245000000000U, 0x3cfe3d72be36056eU,
  0xbd53be523d0ef557U, 0x3e4f33e500000000U, 0x3cf881e0U, 0x3dcbc3eebd6b7840U,
  0xbe65cdf43db1c078U, 0xbd52e1bcbdab1417U, 0x3e5b159b3e396ad6U, 0x3e99fa70U,
  0xbdd04cbf00000000U, 0x3e46f8443dd43b5bU, 0x3dc711863dbeabdcU, 0x3e1aee6abd727f90U,
  0x3e594f41U, 0xbe670baa3e3ae348U, 0xbe611bfa3e0968aeU, 0x3eb0a4b1bd9c4aa9U,
  0xbdb2ec963db88c62U, 0x3e13cb37be1dbd30U, 0xbe4fa615be39bc0dU, 0x3e6452e0U,
  0x3df1ebccU, 0x3e3b0d673da1450aU, 0xbdbfd81e3d2af0f4U, 0xbd53dddf3e75f980U,
  0x3d8af4e63d830b90U, 0xbdcf33e53dbfce3bU, 0x3d6d6b753e863d03U, 0xbdf6fd013d482636U,
  0xbdadc13000000000U, 0x3e472a873e0a2dc4U, 0xbe6da69f3ea863a3U, 0x3e6ad12d00000000U,
  0xbdd7bd33be606099U, 0x3d8e1f0c3d92ee04U, 0xbed9f2153ea36ebdU, 0x3f04f2a4be9d12a0U,
  0xbdd2592b00000000U, 0xbe85efafU, 0xbe00a2463e851d69U, 0x3db5814dbd8f4470U,
  0xbe66af7aU, 0x3eef12bdU, 0x0U, 0xbdd11149U,
  0xbdc156bfbe59ba9eU, 0x3d8b068dU, 0xbd86cf38be598fc2U, 0xbe1b5e713dc4c79aU,
  0xbd8456f33e7a2d58U, 0x3e59a026U, 0xbd888430be02e8fdU, 0x3e1d747dbe1ef12bU,
  0x3e1755ae3e2197b3U, 0xbe06bae33e004f11U, 0xbdf22d80U, 0x3ed5033dbe3af93eU,
  0x3ed18762U, 0x3d4eca3fU, 0x3df0414a3e0cbbcdU, 0x3e1f1e5f00000000U,
  0x3da8475500000000U, 0x3db3b3be3e0c2a76U, 0x3e24cfeabe277794U, 0xbecdd0553e22cdc5U,
  0xbea5f00f3df3de13U, 0xbe46d98fbe13e15dU, 0x3ea4e5c600000000U, 0xbe8f0bd3U,
  0xbeab12a0U, 0x3ea6d4aaU, 0xbe80540600000000U, 0x3ea7ba513e624bf1U,
  0x3e1ecebe00000000U, 0xbe348ff73e6fc1caU, 0xbe2f18dabd5de1acU, 0xbda08ada00000000U,
  0xbb8e045cbda0d9a2U, 0xbdad89a4bd15fc7eU, 0xbd1934b0bca42ba8U, 0x3c5d806c3cc58e66U,
  0x3d21921cbdf12250U, 0x39eb6ef03cc1de4cU, 0xbc466b203d0fb6a1U, 0xbdced26ebdcf205aU,
  0xbd14190cbd662940U, 0x3cb86ca83b95985fU, 0x3c3e506cbcd21b07U, 0xbc5c9819bd33a6beU,
  0x3d8e47e93d90d918U, 0xbd44d5ae3d242201U, 0x3c9ad09e3d7921eeU, 0x3ca4f6423ae1ae44U,
  0xbc7146ed3cf08500U, 0xbcf25d113d29d0efU, 0xbcd5ad0cbd8b5558U, 0xbd2bd9b7bda67a27U,
  0x3c0de77a3d54d7cbU, 0xbc0ffae7bcc43381U, 0xbd026d153ce65753U, 0x3cadebbd3cfa2e0dU,
  0xbd55ad013d127f62U, 0xbd250641bd7a9106U, 0xbd5b7d5cbc1a5c5aU, 0xbd43ced43cbbbc26U,
  0xbda877583d2f3414U, 0xbcd3bc15bd419287U, 0xbd986a47bc3cc213U, 0xbbad24a23c32d8a1U,
  0x3b9c09c1U, 0x0U, 0xbe39d2093eda82d6U, 0x3e252c7a3e4795beU,
  0x3e21bb8d3eaa55deU, 0x3e9e4a9fbdc0b3e3U, 0x3eccbf22bd4e7798U, 0x3da52c7abe5c3b4dU,
  0xbed559733dce7798U, 0xbe69ff02bdf7c2b7U, 0x3d40b3e33df7c2b7U, 0xbea52c7abe02c336U,
  0xbe631d27bdfea491U, 0xbe09a510be36611cU, 0xbe09a510be2f7f41U, 0xbe847bacbdd55973U,
  0x3d5c3b4dU, 0xbd77c2b7bd89a510U, 0xbe4795be3e9c9229U, 0x3e4795be3e77c2b7U,
  0xbe39d2093e252c7aU, 0xbe8d15fdU, 0x3dc0b3e33d77c2b7U, 0xbe9086eb00000000U,
  0x3ddc3b4d3df7c2b7U, 0x3e7b33a4U, 0x3dfea4913e810abfU, 0x3e36611c3e2f7f41U,
  0xbe8b5d873db9d209U, 0x3e77c2b73e810abfU, 0xbdf7c2b73e1768c5U, 0x3de31d273dfea491U,
  0x3e668e153ece7798U, 0x3e3f5a5fbe777bb5U, 0x3db2989d3e073909U, 0xbe7c96023dc701d3U,
  0x3dc1e786be83654fU, 0x3e25d6db3e2349b4U, 0x3e4701d300000000U, 0x3e53c395U,
  0xbe09c630U, 0xbdad7e4f00000000U, 0xbe021ebbbde59fa5U, 0x3da86402be777bb5U,
  0x3e0ee07ebe9f75faU, 0xbe7c960200000000U, 0xbe191519be7a08dcU, 0x3d37b2ea3e5b6b0aU,
  0xbe873909bea20321U, 0xbe682cccbd84abe2U, 0xbe7261673e04abe2U, 0xbe3525c43d93facbU,
  0xbe1687f23e286402U, 0x3d9915193e4701d3U, 0xbe3a40113e498efaU, 0xbe608558be80d828U,
  0xbddb6b0aU, 0xbe300b76be073909U, 0x3e3a4011be80d828U, 0xbe74ee8e3dd1366fU,
  0xbe7f2329be682cccU, 0xbe97ce8500000000U, 0xbe53c3953e74ee8eU, 0xbdd1366fU,
  0x3e726167be63127eU, 0x3eea7c0cbdb58953U, 0xbe845ecd00000000U, 0xbe3d19b73d62eba8U,
  0x3dbd19b73edf2376U, 0x3d8fb7623d358953U, 0x3ea0bc423ebb359eU, 0xbdb589533e5b5b45U,
  0xbe5002af3dcc3a7eU, 0xbea2a05bbd8826feU, 0xbe799cd23e045ecdU, 0xbed793133e31c122U,
  0x0U, 0x3e48724cU, 0x3e827ab400000000U, 0xbebd19b700000000U,
  0x3e2a30bebed1e6c8U, 0x3e62eba8U, 0xbe137f94U, 0x3ea0bc423e00969bU,
  0xbebb359e3eadf8f0U, 0x3ece1e97be62eba8U, 0x3e3d19b73e40e1e8U, 0x3e137f943ebd19b7U,
  0x3dd3cae13ef02856U, 0x3e8642e600000000U, 0xbe827ab4be992bdeU, 0x3ed002af3ed002afU,
  0xbe579313be720c6fU, 0x3ed1e6c83edb5b45U, 0xbe937f943d53cae1U, 0x3e1b0ff7U,
  0xbe9563ad3de2eba8U, 0xbe32a83400000000U, 0x3e240355bdc14d12U, 0x3e0f82eb3e184c3dU,
  0xbd9e27c9be73173aU, 0xbe1270b13e29dee1U, 0xbdf60500bdd8bb43U, 0xbea4035500000000U,
  0x3e83cbd2be55cd7dU, 0xbe676021U, 0x3e99c320be9b3a03U, 0x3e55cd7dU,
  0x3e6a4de83d9e27c9U, 0x3e6a4de83dc14d12U, 0xbe3e5f4c3d9e27c9U, 0x3eb9faa33e3e5f4cU,
  0x3e83cbd23e9f9eacU, 0xbe06b998bd52dfb7U, 0x3dd2dfb7be6a4de8U, 0x3e47289e3e00de0cU,
  0x3e0f82eb3e21158fU, 0x3dc7289e3dde96cfU, 0x3e86b9983e96d55aU, 0xbe414d12be6a4de8U,
  0xbd9270b100000000U, 0xbe2ccca800000000U, 0xbe5ba9093e3e5f4cU, 0x3e184c3dbdcd042bU,
  0x0U, 0x3e29dee100000000U, 0x3d9270b1be86b998U, 0x3dc7289e3e86b998U,
  0xbe21158fbd5e96cfU, 0x3e04d2c7be73225fU, 0xbe79e353U, 0xbdeea1bcbdea2119U,
  0x3d4f1d47bd3d1abbU, 0x3dd81e8dbe2b1830U, 0x3df7a302U, 0xbe8ef435bdd39deaU,
  0x3e3ada6a3deea1bcU, 0x3df3225fbe029275U, 0xbdb41976be83b29eU, 0xbdbd1abbbe029275U,
  0x3e04d2c7U, 0x3d611fd3bd73225fU, 0xbd9d9647be3d1abbU, 0x3dca9ca4be09536aU,
  0xbe2d58813e31d924U, 0xbe3ada6a3e419b5eU, 0xbe6a2119be005224U, 0x0U,
  0xbe515d9900000000U, 0x3e5c9f30bdea2119U, 0xbdea211900000000U, 0xbe89536aU,
  0x3e539deabe4cdcf6U, 0x3e1495013de5a076U, 0x3e79e3533da6978dU, 0xbe1495013dbd1abbU,
  0xbda216eabe8ef435U, 0xbe805224be636024U, 0xbe8cb3e4U, 0x3dfc23a43e0dd40dU,
  0x3d6a21193e70e20dU, 0x3d9a9ab000000000U, 0xbe2ae0de3e22bdc7U, 0xbe5bb3663e782e36U,
  0xbe4b6d393e92779aU, 0x3ea6cf5200000000U, 0x3ef82e363efa36fcU, 0x3ea4c68dbe94805fU,
  0xbe8a54833e0a5483U, 0xbdb303f4U, 0x3db303f43ebf3897U, 0xbe8642f7be434a22U,
  0xbe9ca376be7c3fc1U, 0x3d82316cbdbb270bU, 0xbe8028a63de3d67dU, 0xbd82316cbe9a9ab0U,
  0x0U, 0xbdf41caa3ec34a22U, 0x3ecf7ec4be700b1fU, 0x3e4f7ec43ed59915U,
  0xbe1a9ab03ec552e8U, 0x3ec75badbdc34a22U, 0x3e4b6d393ec96473U, 0xbdcb6d393ea0b501U,
  0xbe63d67d3ee9f0ceU, 0x3e1a9ab000000000U, 0xbe0642f7U, 0x3ecd75fe3e2ef269U,
  0xbda2bdc700000000U, 0x3f012d093f012d09U, 0xbeaae0de00000000U, 0x0U,
  0xbe8a54833ee7e808U, 0xbd821eecbd74eeeaU, 0x3e5df884be8408caU, 0x3e47021ebdb7b330U,
  0x3e3f5aa7be9aff30U, 0xbebb86ebU, 0x3d56510dbebf5aa7U, 0xbe61cc403e972b74U,
  0x3dddf884be61cc40U, 0x3eb99d0dbdbf5aa7U, 0x3e021eecbe300bb8U, 0x3eccbfb8U,
  0x3e2c37fd3e5df884U, 0x3e4ea9953e56510dU, 0x3ea4908500000000U, 0x3ecea9953da0bccaU,
  0x3ea490853da86441U, 0x3e9ed2ecbea86441U, 0xbe191552bde59ffbU, 0xbe7c9661U,
  0xbeac37fdU, 0xbea490853dd6510dU, 0xbd56510d3e972b74U, 0xbd916ddbbe9ed2ecU,
  0xbe2490853e116ddbU, 0xbea0bcca00000000U, 0x3e8bb0413e0d9a1fU, 0x3e116ddbbdddf884U,
  0x3ef3050c3e2c37fdU, 0x3e249085be05f2a8U, 0xbdc7021eU, 0xbe5a24c83e8d9a1fU,
  0x3ded47733e3b86ebU, 0xbe2bc2203d841f2cU, 0x3e723926be841f2cU, 0x3ec1c75200000000U,
  0xbf0bd431U, 0xbea75aafbe2bc220U, 0x3db02990bec1c752U, 0x3eb02990U,
  0x0U, 0x3eb49101be4a9633U, 0x3eabc220bdf6a097U, 0x3eb6c4b900000000U,
  0x3eb8f8713e2bc220U, 0x3eb0299000000000U, 0x3e15bcee3e7f6f78U, 0xbe22f33f3e15bceeU,
  0x3ebd5fe13edc33f4U, 0x3d41c7523e41c752U, 0x0U, 0xbea0bf87be6dd1b6U,
  0x3ede67adbec1c752U, 0xbd76a0973e8aba55U, 0x3e2bc2203d6502d5U, 0x3e275aaf00000000U,
  0x3e11557d00000000U, 0xbed7cc843e696a46U, 0xbd6502d53da75aafU, 0xbdedd1b6be81eb74U,
  0xbd41c7523e7b0807U, 0xbec1c752U, 0x3ea98e683dca9633U, 0xbeccc9ebbd9e8bcfU,
  0xbda75aafbed598ccU, 0xbd2e0bb13dc7e34aU, 0xbc6235443d9a9c8fU, 0x3da1f91e00000000U,
  0x3cb9f46b3d20e219U, 0x3e61bbefbdd40da3U, 0x3e915bedbed92effU, 0xbe50a210be79acf5U,
  0x3e1311b73eb0241aU, 0x3d9a8fcdbe167e8bU, 0x3e167e8b3d433c62U, 0x3ea8cc34be7c2dfeU,
  0xbe0a4ac5bf0123f0U, 0x3e2a22943d807827U, 0xbe092653bd505423U, 0xbde8a2383e5c7b2eU,
  0xbe5abebfbe311451U, 0x3e8b7ce3be5acdf1U, 0xbe348380beadad11U, 0xbe215e48be88c0b6U,
  0xbdeb36fcbde0464aU, 0x3dfefa00bdb1b600U, 0xbdc12a003ec6f580U, 0x3da24200bda24200U,
  0xbef55180beda4680U, 0x3dd19682bebf5ce6U, 0x3e31b1b1bf10a946U, 0xbeaadc163dff2688U,
  0x3e2d234a00000000U, 0xbe266ee93d754522U, 0x3dd23b423da66ee9U, 0xbdec82aaU,
  0xbdc978c9bf0b0f32U, 0x3e0d5920be7f0a8cU, 0x3ec31f34be25ee30U, 0xbe75d2a600000000U,
  0x3e66757c3d75d2a6U, 0x3d6001d5be486d6eU, 0xbebb29f4bdc28854U, 0x3d486d6ebe7d7b56U,
  0xbd99449fbdbca33aU, 0x3eef125eU, 0xbd8012fc3f078b8eU, 0x3d8012fc3d6f125eU,
  0xbee243abbeb5703aU, 0x3e3cf00a00000000U, 0x3dccaeb6U, 0xbda7f1d0be51ee44U,
  0xbd476f27bea6a1ecU, 0xbe19a38a3ec71a76U, 0xbe64e3f700000000U, 0x3d903b7c3e58593aU,
  0xbe749163bd9680daU, 0x3e94bf40bec65456U, 0x3e3370e0bf15ed78U, 0xbee2a986bdd937ccU,
  0x3da08d6a3e5937ccU, 0xbe4158d800000000U, 0xbedafec03ea7b2efU, 0x3e74a4a8be70b285U,
  0xbe82369cbefa8fdeU, 0x3e336dbd3e734b0aU, 0xbd42a26e00000000U, 0xbe9b1970be2d58aaU,
  0xbe8754f0bec11d29U, 0xbdaa64d5U, 0x3e8c2065be87a47aU, 0xbe2ca2ca00000000U,
  0x3e8e5e5a3e40d06aU, 0xbe373f10bd83b554U, 0xbd599ae33e3cf908U, 0x3ea4a2a83e53e0eaU,
  0xbeb5d092be120641U, 0x3dcf1baebebdd95fU, 0x3e414d09beb8abe1U, 0xbedb307e3d832b21U,
  0x3d78879d3dd60300U, 0xbe1738aeU, 0xbea58fb500000000U, 0xbe0ccad63e77b0b2U,
  0xbe90b407be8f664cU, 0xbe648cf3be977b30U, 0xbf28c160U, 0xbecf4a413e34b6e4U,
  0x3eb75f3a3df47ef8U, 0xbe4e8883beaafb82U, 0x3ea2849abe5f7653U, 0xbed6ff6bbe00a8faU,
  0x3d4b25c03ddf7653U, 0xbe976e6dU, 0xbda46943bf095eb0U, 0xbe4fad623e654f72U,
  0x3e0ec7343dfaf182U, 0x3e45fb09be9b8e62U, 0x3de88c74bebafb50U, 0xbec78d483e7842ebU,
  0x3ea4fbddbda9b29aU, 0xbd5d5536be20f827U, 0x3e854d80bee4e0d7U, 0xbf1fb6373ddd5536U,
  0x3eb00f6bbd493631U, 0xbed40f07U, 0x3ede7428bf040456U, 0xbedc5feebe2a7a83U,
  0x3e58377b3da65210U, 0x0U, 0x3dc749ecbf03d23bU, 0xbecf97ac3e04dbf3U,
  0x0U, 0xbddb1ad8bf173ae1U, 0xbda1f274bf08f0c7U, 0xbedb1ad83dee2850U,
  0x3e26b5d13eebc6a1U, 0x3e025f7f00000000U, 0xbeb0246d00000000U, 0x3e07ebbbU,
  0xbde901d3be559701U, 0xbe1ba09fbee970eeU, 0x3e96e954bea057e9U, 0xbf15bb81bd3ca3a9U,
  0x3f09f1473da9c67eU, 0x3e1305c6beea5134U, 0x3dd3584dbf11dfbaU, 0xbf0afb753e25667fU,
  0x3e9551dd3e1305c6U, 0xbd40947cbe811dbcU, 0x3e1d90c3bf0af6c8U, 0xbeace264be2ab228U,
  0x3ebc34053ddad747U, 0x3df6aa5500000000U, 0xbe455511bf1ca1ecU, 0xbe0044183dbb7736U,
  0x3e18eeba00000000U, 0xbe4da4dc3e6d6ce2U, 0x0U, 0xbe6413ef3e391460U,
  0xbd82dd46bd67d11dU, 0xbd3570bb3f06f23eU, 0xbef068913ed0a80aU, 0x3dc7959abe553142U,
  0xbe936b98bf1004aeU, 0xbe84f0d2bee7fe9bU, 0xbee2c7fcU, 0xbf2586323d65634cU,
  0x3eea99eb3e972ffeU, 0x3e56982700000000U, 0xbdbc3d9cbe21e310U, 0x3d61e388bd9e1f45U,
  0xbe43c531beef10ceU, 0xbe568c1300000000U, 0xbd846fc03ea831c3U, 0xbe1eec803e1c466dU,
  0xbe513fedbdce99daU, 0x3dcdfdb3U, 0xbe3b43ba3dea14a8U, 0x3e856d0ebe07c44dU,
  0xbf14a428bd7371a5U, 0xbe8a328c3de256d1U, 0xbe7ea1abbe4ec089U, 0x0U,
  0xbe5dfc8800000000U, 0xbe84c4d6bedddd22U, 0x3e711492beb76e43U, 0xbd99bb7fbe51a295U,
  0x3ec72741be04c4d6U, 0x3e52c761bf14b757U, 0xbe15e31dbec4ba16U, 0xbec711a300000000U,
  0x3e3b5be43dd7767aU, 0x3d79ef12be2e0fa3U, 0xbe48d6f73e99fa24U, 0x3da99915be79ef12U,
  0xbf0db41dbef101f6U, 0xbe466d753e9f7edeU, 0x3e1bba5cU, 0xbe5a85813de71489U,
  0xbe2d4f663dd2fc7dU, 0xbdee755fbeec9874U, 0x3e932c71beec9874U, 0xbea7aa873dab645cU,
  0x3e7d5cb53eb2d807U, 0xbe36ca5900000000U, 0x3daa2f26be1d93f4U, 0x3e3d17f2be27085aU,
  0xbec81fbeU, 0x3e35b280be26f70eU, 0x3dc46df2be5cfbb1U, 0xbf1bea78bda6f70eU,
  0x3e09802a3de1e4d7U, 0x0U, 0xbe5c325d3df4a9bdU, 0xbdd1b6103d92cc3eU,
  0xbe8311cabeddf1c0U, 0xbe89b6dfbedef751U, 0x3e9f92e2bf0aceacU, 0xbe8e1613be67b5b8U,
  0x3e67b5b83e4d7a82U, 0xbf16acf1U, 0x3e9a3c1dbf0e5edfU, 0xbedcaca7be2f9725U,
  0x3e1c9b8f3d8e5edfU, 0x3e5058a93ea3554fU, 0xbd4dc62f3d76edd2U, 0x3e79804cU,
  0xbe8ec17dbda9c380U, 0x3e8ca6d6be6937a4U, 0xbe151117be98ac58U, 0xbe1c4798be8ca6d6U,
  0x3dbb891d3e706e26U, 0xbe16b5cabf11005cU, 0x3e321ca9bef69dd6U, 0xbf07de113e28fa5fU,
  0x3e5b36f8U, 0xbe4396103e3f3d65U, 0x3e88e90bU, 0x3e6ab414be02640bU,
  0xbf09ff36be6ab414U, 0xbe79929d3e3b2df6U, 0xbda32ea23e88c8f9U, 0xbdb6614bbddcc69fU,
  0xbf186222be8ffbf8U, 0xbe09b4b3bd431553U, 0x3da665033e0f7190U, 0x3e516d7bbd431553U,
  0xbeb62c6200000000U, 0x3e82a2a43d8683fdU, 0x3e015787bea443a3U, 0xbdedfd353da58ec1U,
  0x3e7d8298U, 0xbd9bed5aU, 0xbd73a2ddU, 0x3e8c173fbe81208fU,
  0xbe0d4f1abe9ab57fU, 0x3e85b871U, 0xbe6d4e88bdb4ce1eU, 0xbe65c5f13e0b5ee2U,
  0xbda5bcf1beef30adU, 0x3e838b48U, 0xbe892e823ec18ec6U, 0xbd8ed1bcbe4af427U,
  0xbe8ed1bcbeeea896U, 0x3e824532bef34c86U, 0x3e88047bbeb03f7fU, 0xbe9f01a23e303f7fU,
  0x3ea6ab5a3db7e937U, 0x3de3c0703e95b9c5U, 0xbec202be3db99352U, 0xbddb51033e4ea9e1U,
  0xbf05e8d9bde3c070U, 0x3d88953100000000U, 0xbda98d11be37ae28U, 0xbe2021ac3da98d11U,
  0xbe7e539abe9588dbU, 0xbe760cdc00000000U, 0x3d7fbcbdbdf03cefU, 0x3e62ad1c3e380da7U,
  0xbd7fbcbdbe190e0cU, 0xbe1f7e99bf0f8b8aU, 0x3e2a20a3bf28cc62U, 0xbe9f7e99be2a20a3U,
  0x3ea778203e44b5bcU, 0x3c01bff3bcc130cdU, 0x3bc341e53c8a9933U, 0xbcd3da80bd15576fU,
  0xbcaca3e1bc14a4eeU, 0xbd745d32bd0e3e03U, 0xbca4a546bc30b467U, 0xbd45a7713d0a0562U,
  0xbcc93f0abd6f45ebU, 0xbc824d01bd1c00c4U, 0x3d989918bca9d79bU, 0x3da31773bcc76d26U,
  0xbcd4eba1bcbee48eU, 0x3ddf15123d752a81U, 0xbd56c4793d092bffU, 0x3ce2ab473beceefaU,
  0x3d3b9dfc3d011bdeU, 0xbdca129f3d25ba48U, 0xbd4d8398bd277ff8U, 0xbd0d4b5cbd9d7959U,
  0xbce7f4dbbd4c3d9cU, 0xbca0652e3dbd4887U, 0xbd1a3a34bd14cb6aU, 0x3c22d70ebd124932U,
  0xbc30e6203c5e1d07U, 0xbcec3660bb54091bU, 0xbd482ba5bd87a44cU, 0xbd9a1885bd1d8d35U,
  0x3cd4f1e1bd1f4a1aU, 0xbd63dba8bcde9a85U, 0x3bc686e1bc49f87bU, 0xbce9d46bbd248fc9U,
  0xbcf0cb6cbbc461a3U, 0x3e514c1cU, 0xbe7258213e64931fU, 0xbe61d21f3ddc501eU,
  0x3e1fba16U, 0xbdecd6203e40c61aU, 0x3e94b614be43871bU, 0xbd8f3414be304018U,
  0x3ddc501e3e6cd620U, 0xbe06f112bdf7da22U, 0xbe8430123dc0c61aU, 0xbdbb441abe725821U,
  0xbe64931fbe11f514U, 0xbe5c501e3d46481bU, 0x3d9fba163e49091bU, 0xbe75192100000000U,
  0x3e06f112be227b16U, 0xbd9fba163e64931fU, 0x3e043012beaedf98U, 0x3e9e59963d843012U,
  0x3e7a9b22U, 0x3e1fba16bd5c501eU, 0xbd94b6143dfd5c22U, 0xbe9777153e89b213U,
  0xbe909494bdb04018U, 0xbdb5c219be961694U, 0xbe1fba16be7d5c22U, 0x3e64931f3df25821U,
  0xbe9355943dbb441aU, 0x3e7a9b223e27fd17U, 0xbe8851933de1d21fU, 0x3e253c16bdecd620U,
  0xbd5c501eU, 0xbe2e3c473ea53929U, 0x3e5b4bddbd644efcU, 0x3e22381fbdd248bfU,
  0x3de44efcbd705324U, 0xbe8eb15dbdd84ad3U, 0x3dc04283be8bb053U, 0xbe4f47b53e2b3b3dU,
  0x3ea0b79abe1f3714U, 0x3e7c574cbe705324U, 0x3e193500be43438dU, 0x3e46449700000000U,
  0x3e1f37143e7f5856U, 0x3ea2381fU, 0x3ebec1feU, 0x3e705324U,
  0x3eb43e5b3e795642U, 0xbe4945a13dae3c47U, 0xbe072ec4be072ec4U, 0x3da83a33be072ec4U,
  0x3e283a33be6d521aU, 0xbe343e5b3e9db68fU, 0x3e6a511000000000U, 0x3e5e4ce7U,
  0xbd8a2fcebea2381fU, 0xbe3a406f00000000U, 0x3e8bb05300000000U, 0xbe072ec4bd705324U,
  0xbd644efc00000000U, 0xbe7f58563d4c46abU, 0xbdb43e5bU, 0xbe7c574cbe765538U,
  0x3e644efcbe4c46abU, 0x3d02504dbd025077U,
};


ai_handle g_network_3_weights_table[1 + 2] = {
  AI_HANDLE_PTR(AI_MAGIC_MARKER),
  AI_HANDLE_PTR(s_network_3_weights_array_u64),
  AI_HANDLE_PTR(AI_MAGIC_MARKER),
};

