/**
  ******************************************************************************
  * @file    network_data_params.c
  * @author  AST Embedded Analytics Research Platform
  * @date    2026-04-22T20:36:19+0700
  * @brief   AI Tool Automatic Code Generator for Embedded NN computing
  ******************************************************************************
  * Copyright (c) 2026 STMicroelectronics.
  * All rights reserved.
  *
  * This software is licensed under terms that can be found in the LICENSE file
  * in the root directory of this software component.
  * If no LICENSE file comes with this software, it is provided AS-IS.
  ******************************************************************************
  */

#include "network_data_params.h"


/**  Activations Section  ****************************************************/
ai_handle g_network_activations_table[1 + 2] = {
  AI_HANDLE_PTR(AI_MAGIC_MARKER),
  AI_HANDLE_PTR(NULL),
  AI_HANDLE_PTR(AI_MAGIC_MARKER),
};




/**  Weights Section  ********************************************************/
AI_ALIGNED(32)
const ai_u64 s_network_weights_array_u64[1179] = {
  0xb6cdd7000000U, 0x3300005300000000U, 0x81b7b8a45900d94dU, 0xda00000000000081U,
  0x3e0081cf4fb45700U, 0x9d00003500U, 0x39b2000081540000U, 0x3f009fd043c1cf6bU,
  0x6a0000af000059c8U, 0x2f00000000000051U, 0x41ad000000U, 0x932c7000ab0000U,
  0xc0004000007f2f00U, 0x4f002000c0000000U, 0xd47f00003ab10000U, 0xb400a700db00U,
  0x7fU, 0x83000000003900U, 0xa96bb69b008900U, 0x470000U,
  0xaeaa007fa9000000U, 0xd95c000024002f4aU, 0x3cc039000000cc00U, 0xdea3aacd2ca7U,
  0xcc000081d5c8d033U, 0xd200000000003bU, 0x4b00b43100dc0000U, 0x949ab4d9004ccf00U,
  0xc0ac81U, 0x3400008100a329c8U, 0x64a6a67cca006d00U, 0x4100b92b4c00ceb9U,
  0x439900c00094ba00U, 0x782ca3b837U, 0x3e4700b88100b2U, 0x45c600c2000000U,
  0xca007f00000000c4U, 0x19a6009600U, 0x2a00001b001300U, 0xd6b99a00d9000000U,
  0x417f77U, 0xb7008a00a8000000U, 0x57c100003e0000b1U, 0xd0ab81d60000U,
  0x49000037003bU, 0x3d0093U, 0x81884900007131U, 0x7eaf0000f30000U,
  0xcb63e1490000U, 0x517f687b2c6d4000U, 0x55009d310025b700U, 0xda00babe3aU,
  0xc72000348100U, 0xd71f0014b1U, 0xf0e8eb281f180000U, 0x7f2600002b2500U,
  0xc40090007f1e37U, 0xd9c8202dca000000U, 0x33630000c000c100U, 0x39d500ce3100U,
  0xbd28d500003800U, 0x3825b77d00000032U, 0x42007fa400U, 0xa10000000035cbb1U,
  0xcd00b3300000U, 0xd038b0918100a1U, 0x3de0b3e71f00a9U, 0x3a0058c50000d3U,
  0xbc31342500273a81U, 0xe000d8dcU, 0x591a34005c4100U, 0x4dcc8ca9bd811e00U,
  0xdb003d2c00002200U, 0xc8d1e6001d81d8U, 0xe01f0000dfd800U, 0x5c0000013fU,
  0xfffffeeffffffed2U, 0x29fffffff9fU, 0x258ffffff64U, 0xffffff4b000001feU,
  0xb000000109U, 0x1810000000dU, 0xfffffa1effffff31U, 0xfffffd4b00000174U,
  0xfffffe8c00000001U, 0xfffffe2e0000048cU, 0xd100000162U, 0xcf283f003400003aU,
  0x7f300000c828U, 0xe17f00b0610000U, 0x31184a004700U, 0x7a0000520063c78aU,
  0x43df0000d46900cfU, 0x2255dfdf8100cf58U, 0x7f00c240ce811c00U, 0xdcbd81dc32907eb8U,
  0x97b136de00c4c381U, 0x18961fa13300bbd1U, 0x2300c5777fc7a800U, 0x7f5fab1b003a0042U,
  0x5200a9c7527f27U, 0x1d00420000cd0020U, 0xdb8100e000007f99U, 0x7f00003342dcb8U,
  0x400030ce3574e2U, 0xdee1b97f00810000U, 0x1500009ccd6dce73U, 0x7f7faf00007f00c9U,
  0x36a200d4ceb17bU, 0x207f81000f41U, 0x81dc008181U, 0x6f7fa4cbc93800U,
  0x1da7e9000000007fU, 0x2a9d67373a000021U, 0x0U, 0x0U,
  0x0U, 0x0U, 0x0U, 0x0U,
  0x0U, 0x0U, 0x0U, 0x0U,
  0x0U, 0x0U, 0x27e81584001b1496U, 0x325bf0c67300ad30U,
  0x43819d410000e11fU, 0xeeb60ece9d36f000U, 0xe110dd0081f01073U, 0x5ee854001300f0e2U,
  0xc6f117460ab508U, 0x3d812632dae5ee2cU, 0xee22d6f4a4db2a10U, 0x815d8b002e00d0e1U,
  0x955ebcec20f5f1U, 0x7ec3e1d32e40ce2U, 0x2000282000110f92U, 0xff49b2f0040b8e2U,
  0xda6021e30081ad0fU, 0x587546a721e6U, 0x64223a38001300a6U, 0x1cf1d90031187fU,
  0xec0abdd6e4ba68c7U, 0xb22869bb8140ef13U, 0x95000000171446U, 0x3800ee6c412f0069U,
  0xb40039c7b37f002aU, 0x10c33d26f5eaeedbU, 0xe1f627a930d900daU, 0xad0b0014e9006533U,
  0x813800f442d62017U, 0x37f92425df18d949U, 0x514533e16000df2fU, 0x41fd1e4f2600e57fU,
  0xcff91741afef4a6dU, 0x275bf400c82ccff5U, 0x11009feff52e8124U, 0x7b799f00dde09322U,
  0x229ba49d7f001cd5U, 0xefb451433cbe001fU, 0x15360bdc19d8141eU, 0x7fdbe7422ad36300U,
  0x85cc5102900f115U, 0xddb575c8dc005808U, 0xca000ade81b3201aU, 0xabdace5a2b38b31aU,
  0x2bf5bcc05981002fU, 0xf4351400f8361800U, 0xf2499b005562e90aU, 0x17369e4b8e3b9dU,
  0x81f100e7eed4e1U, 0xcd2e37dd9f7b141eU, 0x5e00d151cacf121bU, 0x2d002790b536f6b0U,
  0x43d67f000b003828U, 0x4fba001d7f005dccU, 0xc45aaa543d009bU, 0x6114d4f000170028U,
  0x332246eb33f57f3bU, 0xb6e4315e07e2c6dcU, 0x2bd14434f4e31a35U, 0xc6151700ec0a42f6U,
  0x10ecd681c7cfd800U, 0xe593efed2e193f00U, 0x111917000c3832b6U, 0xb717001300a4e953U,
  0xc1407f99e200d23aU, 0xc600d9e38116002eU, 0xafc9f8ec0c1b191bU, 0xe2d2e99941ebd7d3U,
  0xadd268f0161ce6U, 0xd1932911006fU, 0x4f547f946fd39932U, 0xa6000056982428e7U,
  0x812c0075dd594aefU, 0x2b1868d2e9003550U, 0x719edbde56c3d6f2U, 0xa723e10a8692137fU,
  0x442c00a40b2c292aU, 0xd1811e2c27242dcbU, 0xe1e9f7d2323538U, 0xf200ca3041212800U,
  0x6091d3da2ad10d00U, 0x37c94952c51a0019U, 0x812fb33e6b6614U, 0xde00edf1a3518116U,
  0x1653cf08610016d0U, 0x1b46b331f42cc0acU, 0x982f0000598bebdeU, 0x170b094bd61de681U,
  0x1100f32ba459d2U, 0xe5d9c200f481d3c0U, 0x2d3647dcabeb47U, 0xbee6112d002043f9U,
  0x56007f28005c002eU, 0xd3001426111600f7U, 0x3c13e71e121310c7U, 0xcd1cf400ce00bb1dU,
  0x4be900e6b2dbf00dU, 0x3ba8a817ec10cd7fU, 0xffffffd7fffffe5bU, 0xfffffe76ffffffa6U,
  0xfffffd970000022bU, 0x9b00000070U, 0xfffffd0e00000433U, 0x37fffffd92U,
  0x224fffffceeU, 0xffffff10fffffeacU, 0x83fffffc71U, 0xfffffeaa000000afU,
  0x23d0000057fU, 0x4a00000024eU, 0x13700000552U, 0xfffffefffffffd0eU,
  0xfffffef6fffffea2U, 0xfffffd21000000a3U, 0x4a4000b900785300U, 0xcc81c9e1d98176U,
  0x81c300816a2b0072U, 0xd400230000bbbfU, 0xcd8c45a92800U, 0x7338006a5a00003fU,
  0x53de00U, 0x816d6b2781add500U, 0x7f004cb79600U, 0x7f7f0018810000daU,
  0xb0007fe600007f6dU, 0x410093cc243f5c68U, 0x5d813e8181U, 0x7600d3df378127b9U,
  0xd300e451004f45U, 0x38ae46d5580081U, 0x41775400b10052U, 0x636bb9e6582881U,
  0x5d0000007f000000U, 0x7fe400007f32U, 0x17b2648100ce5200U, 0x32500000003cc3bbU,
  0x6481b800000086a9U, 0xd650bb7f0000db00U, 0x81c1000000dfc200U, 0x3e7e8a3a00530000U,
  0x400000006c000074U, 0xa4debf4a8147a9U, 0xb70000aba162286dU, 0xd0000024b70061U,
  0xdd46be5c690000c4U, 0xb88100d900000083U, 0xd1810000007f37a9U, 0x33297f005f0000U,
  0x60640036a97f2981U, 0xc9d2dd3dba3c00U, 0x0U, 0x0U,
  0x0U, 0x0U, 0x0U, 0x0U,
  0x0U, 0x0U, 0x0U, 0x0U,
  0x0U, 0x0U, 0x0U, 0x0U,
  0x0U, 0x0U, 0xd2f61c00efcd0e00U, 0x18c3da0c1a20f4d4U,
  0x4b00d1e0e1290066U, 0x45d41bcf93248111U, 0xd400e200007acedcU, 0xb80f400037ebdac2U,
  0x39d41a0069f237bfU, 0xd7d2e27fe630002fU, 0xa65a34c8ea310016U, 0x810000061b1c3211U,
  0x6000000050292eU, 0xc13b201700efb735U, 0xf1df0dc716bded48U, 0x16f2e854662cc8U,
  0x1b004ce0c2e5982dU, 0x7f4529bdca2c00ebU, 0xc410f15200816f34U, 0xc252149e00510f22U,
  0xe4c7d20f2561e88cU, 0x21200d00c2e2eeb5U, 0xd0ed00121400ac32U, 0xb1b449dc4ef300U,
  0x29f1002532009fc8U, 0xe3c816930d8e034U, 0x5d3a00e1acaaeeU, 0xbac1c11c8b919cbU,
  0xdf007f5ccfc0b0e4U, 0x19ef97490056f58eU, 0x1ee7dbefa37fde61U, 0xbd13351369006e4cU,
  0xcf9681af2eb6ddeaU, 0xec31cd0000007715U, 0x18b600282e7af026U, 0x2417c0414c003800U,
  0x330051132915cd1eU, 0x7f3950001d2b36d3U, 0xd0247f0a00ca51U, 0x5500ca140011df00U,
  0xcf10ea36d6c3U, 0xf2170f1a14c0007fU, 0x50441ee1d0001b00U, 0x7f006ff000c8d11fU,
  0x34ec40380025U, 0x4a14a3bbc2f343U, 0x3d0030f3eb5b74daU, 0xc4742a81d34311baU,
  0xc23625a9469200ddU, 0x14bd1324ce3400U, 0x210ecf00dd1e22aaU, 0xe5c8e781e2762e00U,
  0xdef2f4d6ca404f09U, 0x23eaba81de0cc700U, 0xc9c400d929c22332U, 0x20e4180025005fd7U,
  0x8900182d443200eaU, 0x7f4a0853ab2513U, 0x12112c00bf30c7U, 0xf00dce00ddd0U,
  0x27d232dc810dd5c0U, 0xae26163bda4e211aU, 0xaceced43165cebc3U, 0xa11281adbe5c1629U,
  0xecbdd4d250d533e0U, 0x2ad70e4151cc0048U, 0x26b2c51fe8008117U, 0xee2700b7f5c8a447U,
  0xe72c2211112732U, 0xd5de106600bbcc25U, 0x63a14275000b6536U, 0x39a418dfe5003681U,
  0x5700275950eb64a3U, 0xda0000e7a32956eaU, 0xc84910231fda22U, 0xe855f1cb53390000U,
  0x81dd007b3a25e5b6U, 0x3e70a8154e90d6c3U, 0x9c8900d17f000e0fU, 0xb40e47df5b21c2e8U,
  0xdd00e23b6142e678U, 0x1025f65114baf3b1U, 0xb8950044da00c61fU, 0x54565068006c3145U,
  0x196144b9ebb53a81U, 0xa6ec334056746c00U, 0xe22fbe19eeb4c5f6U, 0xbe22e3ca1b9c36e0U,
  0x623a1ee5d8a4daU, 0x2c238118000fde58U, 0x1bd2263e1c00300eU, 0x3d7228308a390c00U,
  0x82dc00433f3a53d0U, 0x6ef4efdb7f0adceaU, 0xadde8f00da1e00f4U, 0xeb3d53000032f1d3U,
  0x39002929c1deb861U, 0x7feac373f20a5269U, 0xcc66002fdad4e7adU, 0xd6a816b181ef29dcU,
  0xb0ebcfd459c344b6U, 0x1bece2ceca1248c9U, 0xbb00d50067e76c33U, 0xde1f3ce80099dff4U,
  0xd4440010ee0000daU, 0xd8004a9a1b0081caU, 0x7fee0016def1ca44U, 0xefed30dcc2e5f6d5U,
  0xecf1c500d10900b4U, 0x2af427d0d6e4f1b7U, 0xf1ce810b001dde00U, 0xc1f70b00f021e200U,
  0xf1a7b8204c5ff300U, 0x152ad84efaf3213cU, 0x53bcc510e93be4e5U, 0xea1333f8e0004a2dU,
  0x1cf12e6c49e77f1eU, 0x14c9f01931e4ee34U, 0xbe4f990e548e28U, 0xafe61bcbe816155fU,
  0x5eebd797aad1da3aU, 0xd9811aae45cb0021U, 0x202a7b007f42204fU, 0xf28c009e312d4de3U,
  0x45c26e158a61b739U, 0x1132eeb7940000d3U, 0xea37c810b4ae1c0eU, 0xa3ea15c914009aedU,
  0x2edd810d009ae5b6U, 0xdb004af214f1e0baU, 0x110dda4fac8100U, 0xc1271ec6d2U,
  0xe00d4c537340f00U, 0xd0d4f6c2ddf500e4U, 0xf22dd824311a2f00U, 0xb4dfeae87fU,
  0xc6b1b3baa045ca11U, 0x2db9f02b5c305abdU, 0x2ccd001294c3ebf6U, 0xe539e2c8003d2500U,
  0x46ea13e773003449U, 0x20270000001d7ff3U, 0xe82b2ed9df1b13dcU, 0xbecaf736f619d7b3U,
  0x812007f3da0024f1U, 0x4c48de0015a6edb9U, 0x2c3b389fc6f02317U, 0xcc7f6eef00db1e9cU,
  0xefe300a20000e411U, 0xcbe4e200001aec21U, 0x2013e4ee1b300025U, 0xe2240921009ce50aU,
  0xeb343e19812eU, 0xd3e000232115e1c3U, 0xd910292b56f100U, 0x15f6f2230007220cU,
  0xd6c9387f111f2432U, 0x3700e7000000dff2U, 0xedc9bcaef000e240U, 0xd7d92ddd00e32300U,
  0xe2510006e922b581U, 0x3ce0b00035102700U, 0xd5000dc8c1d9b5U, 0xcf1d2eb9e2003b00U,
  0xe439d7280fe01bdbU, 0x7f3713f4515e3721U, 0xf9e0c8001816291fU, 0xd27ff95b2e101cceU,
  0xf2db15f34f21ca00U, 0x57d9d6d8d80000f5U, 0x1b0023e11ae03991U, 0x1ad151e530582114U,
  0x10f43aeb136c4ee8U, 0x9d7f211ecab823d3U, 0xe50cdde100002e7fU, 0x3517002512be00c7U,
  0xcef22e421f213U, 0xf8bcbf24003826d2U, 0x11f7de24cc2d0028U, 0x4610d07f3b1e00U,
  0x310f2ff440e1f600U, 0x350034e2ba1df410U, 0xeb001cc573005ac5U, 0x2800a4004000U,
  0xd22fa81f00687f12U, 0x34e3dc47d42f523cU, 0xd93b40287fd5e9U, 0x3de441f0a6cc002eU,
  0xd91e440f12c00031U, 0x73d43ed3abad0e00U, 0xde19f4d20f813712U, 0x50b1efb1da3449U,
  0x30e51a8c113d1600U, 0x5cee18375e00a51bU, 0xfffffc220000034aU, 0x36600000253U,
  0xfffffe30ffffff94U, 0xffffff7400000327U, 0xffffff80fffffb19U, 0xfffffcfbfffffbf1U,
  0xfffffe18000007f7U, 0xffffff9000000232U, 0xfffffd35fffffeb1U, 0xfffff930fffffae8U,
  0xa55fffffa89U, 0x2dffffffc2aU, 0x83900000296U, 0xfffffe75000006d8U,
  0x4da0000013aU, 0x650000004b1U, 0x18ffffffc2dU, 0x1e7fffff80cU,
  0xfffffcbefffffe47U, 0x824fffffe7eU, 0xfffffb39000006feU, 0xfffffb49fffff99cU,
  0xfffffd06ffffffcaU, 0xfffffe4900000119U, 0x4e009d009800e49bU, 0x7f8181e76e330000U,
  0x71609100c259007fU, 0x7f0055d300db0000U, 0x24b0307f0043U, 0x460093547fe8c2bbU,
  0x46d3000000000072U, 0x40382d00330000U, 0xc600d9000000cbU, 0xb26e00000081816bU,
  0xd27fd7d40000U, 0xaf0041350081c1U, 0x7f350000005c9500U, 0xd259007181b50000U,
  0x6c0050000000008cU, 0xdd007fU, 0x2163000000cb3eU, 0x5800551e3cd300U,
  0xd0d4007f401b00acU, 0xa42a8100005732U, 0x9e7fdd00afU, 0x52005ca000000000U,
  0x3dbdb30027000000U, 0x33ae8bU, 0x8981810000002c7fU, 0x4400cac55f4d0000U,
  0x7f000000c9a900U, 0x6bc77f7faeaf0000U, 0x60002ec033007f7fU, 0x36340000d8d35800U,
  0x570091a000003000U, 0xc700008158b3U, 0x963d000000000000U, 0x5800287f00009aU,
  0x777fca00d8e77000U, 0xd8002f44c00000d1U, 0x2900000081008fU, 0x51453b0037a8b100U,
  0x7fab000000007f00U, 0x83003da2a5424a76U, 0x764e659729bac800U, 0xbb008794612a2d00U,
  0xb637000000b58100U, 0xa481000000007fafU, 0x47817f7a81593bU, 0x813a007c7d4700U,
  0x580081007f000000U, 0x817f00d4d89f007fU, 0xbe37000081b60000U, 0xa20000000000007fU,
  0x9500a10060004674U, 0x556567b94b000000U, 0x7f00000030290055U, 0x4e2f7f7f64810000U,
  0x0U, 0x0U, 0x0U, 0x0U,
  0x0U, 0x0U, 0x0U, 0x0U,
  0x0U, 0x0U, 0x0U, 0x0U,
  0x0U, 0x0U, 0x0U, 0x0U,
  0x0U, 0x0U, 0x0U, 0x0U,
  0x0U, 0x0U, 0x0U, 0x0U,
  0xe648d9a63000d71cU, 0xe00003c232b40f4U, 0xb2100e6d5740d3U, 0x4c373881d8dac4aaU,
  0xbee42f5f00aa4feaU, 0xd2b1d00000c0d400U, 0xdf5511731b7fe600U, 0xde5a00ef00ca0f7eU,
  0xcb004a00dd731233U, 0x692dabee984bca2aU, 0xb4bd551f67df4fbbU, 0x4bebcdd6009fea00U,
  0xcbf0f00d041dfbfU, 0x20e0aca9a10065e7U, 0xdd0c8100ef00d5U, 0xdbf445df10a43eU,
  0x2f433d2a9e6deda3U, 0xe73451001d002400U, 0x1dd109e4000000U, 0xf22ed9f6ef001881U,
  0x160df4f6f517caefU, 0x7100220d27cfU, 0xde2a110cf6d70adaU, 0x22d1c8d6000ddf16U,
  0xe1cd100e00f30d7fU, 0xb844bebed7001b14U, 0x22b73cb8bf1a272eU, 0xc739c83fc40013f6U,
  0x24ee37d7cae3ad00U, 0x460de7375aeb00dfU, 0xcb22f20c0045297fU, 0x1f00ec2500c3e00eU,
  0x2b007bd30f0020U, 0xf02cf10013efa2d0U, 0xcd3a21d58f1c9edU, 0xcf5c0fd2b8c518d6U,
  0xdff100f7e600e881U, 0xb90ac0e4200013e6U, 0xcc13003ce2f40012U, 0xe5f71b2e33003bdfU,
  0xd6f0c63200350fU, 0xbb1742b91f5300U, 0xde82181df42c42dU, 0x3bf3e6d71b13e900U,
  0xe4007d3222c8d8e9U, 0xf31bd1d6ea008158U, 0x82d33fb6d114de30U, 0x442c00d70f7ec1b2U,
  0xc5ddebb9b3e7d200U, 0xd1b8d3dceb00a6dcU, 0xdbd714ed000000d6U, 0x8100dac43ec94b23U,
  0x20d712e200e9a9daU, 0xc70000cf4adc1dbcU, 0x3311db3911f030c3U, 0x1a00e2002f2a31d7U,
  0x2b0fa7d0debc00U, 0x4000e23d434233U, 0x2da5ece7317f2828U, 0x322bcbeae2cf1c00U,
  0x18bb40c338001f00U, 0x1c13818dd800c6U, 0xd05f18003812f039U, 0x340df11cbe0aeb0cU,
  0x191dd6003dca36d0U, 0xdcb6b60000000068U, 0x3a1810bcc3672cedU, 0x5317e7f21cc22016U,
  0x4400c818f4241dU, 0xe73e54f0007f00deU, 0x43f2c638006fdc00U, 0xeef0c400e4b514ebU,
  0xc60d002dcec300b1U, 0xd8003dda0c00d65aU, 0xaf0000000032000aU, 0xebda7f2aee3de0e7U,
  0xfc5c6df00b200c1U, 0x3aaf8ad300e8c7ceU, 0xd510def5e4d1e700U, 0xe600ddb900004219U,
  0x2edbe7edb815ec33U, 0xf6f2810000005426U, 0xd1da5815c6b0df00U, 0x5e001700f4000cccU,
  0x4129d31700002053U, 0x3febaf00dd1b1cd4U, 0xbbae1e28c2f777a2U, 0x3e10d30013a5d6ebU,
  0x10e1c14100cb0dU, 0x1224811e3a1637U, 0xc8a6bfed6db37fcbU, 0xcd1ca500f5dfe4U,
  0x6bdc009100f1eed3U, 0x4fb24000d5d89bU, 0x14e1d42e002bb639U, 0xb159394f0000bd00U,
  0xef7fcaedcf1e10e3U, 0xed10dbe854e91911U, 0xcb531cf83a47b426U, 0xea4200d2004b2400U,
  0x5e4d0cf300d63ee1U, 0xe001ab4903400U, 0xd61ce600324994d7U, 0x419c00d6394053aeU,
  0x2800e4590050d7U, 0x60112d007f3825U, 0xd0e60071eb3900b3U, 0xf21bdb000026d9U,
  0x3e16d84c8fda0039U, 0x2bf33530decae7dfU, 0xda00f22bd5d1c000U, 0x1adf4400238135c6U,
  0x138229ecb1d555e8U, 0x29ddb1110024aed5U, 0xe32330341bd85573U, 0x20a8ba1a978eac00U,
  0xda11147f0000e3e3U, 0xbadd762400822e00U, 0xd6c30000004f0000U, 0xb5e9000033002e00U,
  0x210012cd0025100eU, 0xdb55ebec1d5c0000U, 0xe3efc2158bec004fU, 0x16de2d0bed00d6U,
  0x2c81dd004edc59e1U, 0xda0fd6c6f4c7b514U, 0xb2e7002d3c00f4eaU, 0xda1fd1214800e145U,
  0x70e810002ce91fe3U, 0x2b0000b5d5d42e00U, 0xdbd9e89e335ddef7U, 0xc637cee12bee8100U,
  0x20100000dbcc0000U, 0x511900284400eeb6U, 0xc5a700ae20f4U, 0xdef3700a00bd5f2bU,
  0x1400192f007f10f2U, 0x90eedfe43e2300U, 0x33d24e8100002c63U, 0xdb21e02d16d76954U,
  0x24240013d944beafU, 0x6f1bc300001b3118U, 0xdfe295d414cd3bebU, 0xd5cc43000000002eU,
  0x96682fe181f41500U, 0xf3c6ddb9debb3a17U, 0xace9123e0d003f00U, 0x41d1ddc1eb00ebU,
  0xbc292424c2e81b00U, 0xd3711d22f3270019U, 0x6fe6af29e90047U, 0xd177ab383a78e810U,
  0xdfdc22ef1700f2U, 0x2600d42c001e42eeU, 0x3b28e8002bdbafU, 0xcea8000f47007fd4U,
  0x170000213b12f4ecU, 0xbf2c003e9bd50cf6U, 0xe1ebeed4e3157fefU, 0xe7edded09f2be84dU,
  0xf3d12c3400e8f400U, 0x979d13e4c63f00e0U, 0x2f00e9ef129ef3dcU, 0x4b261d4ad9df1bb0U,
  0xbdc717d20000f2bbU, 0xec21acea00da00e4U, 0xf0027e27f330a27U, 0x20f1dc22f0aff4d0U,
  0xe430000f7eeaf631U, 0x59ba1d2b00bccccbU, 0xdfce0d959d52e33aU, 0x2ced36f42ddde47aU,
  0x2ae7bc1fddaa902eU, 0x20f30093e5c881cfU, 0x6939623aeb003ae0U, 0xd3c32c2b1829132dU,
  0x3b2f1d4d001437cfU, 0xda819b38e6443462U, 0xf400f3005e24b218U, 0x1ac7ed002a3c4000U,
  0x21d1d1000098U, 0x382448ba7fe8d549U, 0xced2229ecb7bceeaU, 0x1c70d5c100121b28U,
  0xb3c1ec0000281f26U, 0xaa9ab5001ba90000U, 0xc081f800d1b3dfb4U, 0x3320514fd9dfce5cU,
  0x1f2f40e50015ebe8U, 0x2600d658090d300cU, 0x8f5200eccf00U, 0x94da8c00b5ebbc52U,
  0xb573e238ed1c4adfU, 0x1b57ded2e2002445U, 0xe4de18b99e6f69adU, 0xc3d9c00093ea5b1cU,
  0xe43faa0031af7fd8U, 0x10ab0021e2ec00U, 0xcec933fa104e2c27U, 0xe300000000U,
  0xe0103c144aebb9f1U, 0x1b6314080d39b2dcU, 0x81ed25dfeb5fe400U, 0xed0000e01c0f41U,
  0x4c7fe6b331f5e059U, 0x38bf400065ca8767U, 0xdf224deeed003eU, 0xe34d0000cbde1dU,
  0x24112428003800bcU, 0x34124be80bf2f3ddU, 0x1ccb22286ece0000U, 0x3df0950053002421U,
  0x98445c0081160000U, 0xb300d61ea36216U, 0xa41aeacf4c2a9b00U, 0x5af1262f0031e3ccU,
  0x4cb00000698ea341U, 0x89f57f2b14006327U, 0x1f230000002400edU, 0x1a002c3ae7aa002dU,
  0xd756ed220095521dU, 0x89d82cedc3141d75U, 0xe41659503e45b0c0U, 0xceb7c036e9bc24c1U,
  0xcdd7999e9a00d057U, 0x7f5958c8e81700d5U, 0x350019bb6d0ec317U, 0x23dc1f1d3000b6eeU,
  0x153500c9d9e20d27U, 0xe13c4634f0451337U, 0xf27f0cf7090af8d5U, 0xd00002f00140036U,
  0xdbb71b13cae1261cU, 0x21221c102c3417f4U, 0x5900e9845c440086U, 0x75544ddeea1f00c7U,
  0x5c66c6c7004d590dU, 0x6d23a7e3eec3c4bdU, 0xd7dfce813f006ab9U, 0x733f24141b95U,
  0xdd640c3d00175694U, 0xc1003063d631003cU, 0xf13e00b3eb004900U, 0xdc006b0ea7cb14a4U,
  0x58d3a8df00d07fcdU, 0x1a8b4e264b9b2858U, 0xc34c00411d004b3cU, 0xed008b3d00c881efU,
  0xd448dcf612004df5U, 0x4f2fcd2ac4bb002aU, 0x41f21f2b0f16e5e6U, 0x1b203cbd3da8d924U,
  0x16e400f40814e021U, 0xf8e3b2e1f028f308U, 0xe200f3e9e000e700U, 0x180a1409e7f6e5ceU,
  0x4feec80a00e90d29U, 0xda81ec000d25e7f9U, 0xc4132f0f5e3e02dU, 0xe92b46dc00001100U,
  0x91cdcace1b2abde2U, 0xda770a0028b5009bU, 0xe8e3980c22143be4U, 0xa7f21d33b31U,
  0xe3001400f8d9191cU, 0x520acd003b203dd6U, 0xd1164138000000afU, 0x621bea15ba34ed44U,
  0x8108f32e092d15U, 0xecf5112d00002a0dU, 0xd2a5acc38553af24U, 0xdf175e00240051dfU,
  0xddeb000d21f18155U, 0x8400e14434f0e100U, 0xe0b9a63a59305cd8U, 0xaf38d80099df1600U,
  0x1dd468148b00ebefU, 0x391014b3c1ebe0e5U, 0x31815932004b47f4U, 0xa4e2b8e4173f2328U,
  0x8b0d11f32d4b4010U, 0x5722b000c923e500U, 0x19e22a35301246U, 0xd2a92a1223e916U,
  0x28ec07e1e8f8eef4U, 0xe0114016f6191fdeU, 0x7f36bc3ca5f7d4d6U, 0x1237f3000b000000U,
  0xf7600000002U, 0xfffffa62fffffd92U, 0x62100000335U, 0xad8ffffff3fU,
  0xfffff86f00000346U, 0xfffff4bc00000057U, 0xca7fffffc64U, 0xfffffd1a00000402U,
  0xeffffff90bU, 0xfffffe59fffffa9dU, 0xfffffc6600000415U, 0x6eefffff594U,
  0x67b00000566U, 0xfffffae600000a21U, 0x7c2ffffff4dU, 0x45300000596U,
  0xbd300000203U, 0xfffffdd1fffffd42U, 0xfffff1810000001aU, 0xfffffeb9000001e3U,
  0xffffff9dfffffc31U, 0xfffffe31fffff9f5U, 0x55bffffff50U, 0xfffff8af00000bbcU,
  0x3f7f1a6e643900abU, 0x3de23ce7e600f517U, 0xe0becd7472ecc7bcU, 0x319476ce3f4c0052U,
  0x9900baccda24d5daU, 0xe5545337bc26b0U, 0x54361a4818f092c1U, 0x1400bfcb39e23221U,
  0x29241fdc002a594aU, 0x88e200bad419e12aU, 0xdb9eb0de00ecb15cU, 0x7f4bb50022eed248U,
  0x8ac80000cd00d1c2U, 0x26006200c0db006dU, 0x6c00e77857aadd76U, 0x7ab100d363aa8a35U,
  0xdfd0007fbca1a4afU, 0x9b8cc9839e8ac93fU, 0xa7323833007fb42bU, 0x4236bc00f0aa2a46U,
  0xaf27d97aebd100U, 0xecdd1f190faf49U, 0xafbf30583ceed8d1U, 0x48b7ac25e3dd553fU,
  0xae16eb705936874fU, 0xe2158f002292d0a4U, 0xcf5d216c429319U, 0x2a5a9cec148856deU,
  0xce00df1d31c343U, 0xb59081338f5e41c3U, 0x4300b1e124460900U, 0xa2003db05a8a51caU,
  0xea4f28bd00f2e716U, 0x1f00b55ea9bd2ac4U, 0x6100e1e0175da73bU, 0x7fbbc7002b622528U,
  0x17674b615ea547c4U, 0xefc618bd0000aed9U, 0x66d79cc810b1aa21U, 0x7ebf009e191a00a1U,
  0x25006d710000f1b3U, 0xb1477f2911400064U, 0x3900cfc5005323abU, 0x213ecb28ee18ce57U,
  0x58a64cd2185ddaU, 0x30e1cdba81001fe5U, 0x200e5953db5d0000U, 0x5cc300c0bd423c34U,
  0xcbd7197f3ed85795U, 0xc9650043598fdc3eU, 0x543267e522a2c6b6U, 0xa3d92a4f3d001950U,
  0x9714dd941bbe60U, 0x458e99df1e00d02aU, 0x3d92bd814d004c51U, 0x985b0075462b00b1U,
  0x7da7b6670040a127U, 0xb82bc3c8377dddceU, 0x79d844a2c70093U, 0x4d81d35458dab331U,
  0xf1393a1700567734U, 0xcf81ea99a6e2ab43U, 0xb822774197155930U, 0x5d00cc6c2ee635cfU,
  0x21a6b6d2330042dbU, 0xbe57ac79a6b424U, 0x1a7acd573c622400U, 0xb2a9b2317845003aU,
  0x5b00b551388727a9U, 0x7914ace2c385e96dU, 0xdfe58100d512abe8U, 0xd600be9349aa8c9bU,
  0x17e0000011dU, 0xec00000000U, 0x1e10000000bU, 0x2190000012dU,
  0xffffffa0000000e4U, 0xffffffa6ffffff49U, 0x813ae5300053e4dfU, 0xc4e1591af24400U,
  0xead90000817a8c4eU, 0x7fc700005a003d00U, 0xcde6b591002ce63fU, 0x208146aedaa66241U,
  0xd07fa3c200834094U, 0x6335d1e7200034b7U, 0xe77f620082626cU, 0xad5f003e9a0081bcU,
  0xb21782002d4728c0U, 0xcb00002c947d81f3U, 0xccd67f11cfa06dadU, 0x12dbc95db3b32f1aU,
  0x4f6a20869400813cU, 0x134fdc1835bc2baeU, 0x649760cf81da502aU, 0xda96557f5f911cc9U,
  0x9bac6f00b3c37f15U, 0x1df1211200ea495cU, 0x2aa736e77fbd0014U, 0x8200e55b15137fU,
  0x8abb003bc5002717U, 0x378e00bb3a2fe381U, 0x1ae2602a1d337fecU, 0x344d685d1ab7cf1cU,
  0x3e3c81003aa4e557U, 0x55b000bf99005d81U, 0x62db7f189514964cU, 0x3952721bb9c03fbdU,
  0xc06bb32fee7f00U, 0xe3467d81d000ecd1U, 0xa8001b00b54c2699U, 0x81a65bc490929eebU,
  0x387731aab1000fU, 0x7fdf007000589d00U, 0xc2295c52e30000eaU, 0x359900abd67f9a00U,
  0x67816edc2c57dd7fU, 0xb59b007cefdaa54fU, 0xc75381d885bc1f7fU, 0x3937c740e900bd1eU,
  0xd4afab4918007f20U, 0x1921af9242006300U, 0x78327f5fad5b986bU, 0x40d0deedce488136U,
  0x4f4e009b50b42c2aU, 0x7a61ed131d7f9548U, 0x514d63698122eeb9U, 0x42ad1ebd1fe76aU,
  0xce0000bc9c7fe291U, 0x81e73d53c4419c39U, 0xa5000042d73c31cfU, 0x7c55b5c7ad63137fU,
  0xa3008129da3c11d9U, 0x234dba8100183900U, 0x40656565d543e631U, 0x2bee48ee91c47fb9U,
  0x868981138a464aU, 0x65db2a8ec20000b2U, 0xcb7f30434d649aU, 0x66c561ad8d47b1f3U,
  0xc0a841eab581d6ccU, 0xdf2d00404600d57fU, 0xac2bc6c70025b37fU, 0xaf9a810f00119bU,
  0x987f2514c5e1295dU, 0x3c81b9d5a5e6bc28U, 0x7e5bc2d78a00846cU, 0xa54de0f22ac10038U,
  0x4df25600b4453181U, 0xdb0017007fc0d300U, 0xfffff8f0fffffb4dU, 0x58cfffff7e7U,
  0xfffff625fffffce6U, 0xfffff477fffffa7aU, 0xfffff4f6fffffc84U, 0xfffff50e00001316U,
  0xfffffb5ffffffcbaU, 0x1b9fffffc9fU, 0xfffffd9efffff73dU, 0xfffffadbffffff81U,
  0xfffff9bafffff9cdU, 0x4e2fffffebaU, 0x41d000002e6U, 0xfffffcddffffff4dU,
  0xfffffb7efffffe20U, 0xfffffe39fffffa58U, 0xfffffabffffffbbcU, 0xfffffd78fffffb5bU,
  0xfffffb72fffffa34U, 0xfffffdc4ffffff0dU, 0xd0fffff949U, 0xfffffcf8fffffeffU,
  0xfffff87400000157U, 0xfffffc54fffff960U, 0x2edebd0dc6d76600U, 0x1a2f81e3233000U,
  0xe90000a7282a0000U, 0x17cff9de003100d8U, 0x3a00ec0e15002416U, 0xf600000edde40000U,
  0x170cbff31dec21b1U, 0x361ee481f0201fc8U, 0xee600b3a0b5f0eeU, 0xdd2de7920de100d6U,
  0x1621e53617253b00U, 0xec0036080038e1f6U, 0x235c94ebdddfc527U, 0x14418adbebe4c1U,
  0x3f27ef95810020c6U, 0x40da3684e3db7932U, 0xf214f4450000271fU, 0x1d1159f136ed0000U,
  0xe8c9e6f2260b00d1U, 0xaf2b21000be1267fU, 0xe0eeeb2b419f0efU, 0xd239daedd60d6824U,
  0x3212dbeef2c4f706U, 0x181fda0b08001730U, 0xc8389a13d914d82dU, 0xe0d92300005c00d5U,
  0x32bc0081319300e5U, 0xe7302223e0a10000U, 0xcd2fe2e4d88a4e14U, 0xd43b00ecec1adbb3U,
  0xae83d042de34328U, 0x3d193db9e9162781U, 0xdd3300ec4bb7003fU, 0x160ac70d331b00U,
  0x17eae2ed133ce519U, 0x322900ecb114f0U, 0xdbddc409f51a26a2U, 0x1c163a0015f6da38U,
  0xc22800e800001400U, 0xca000097db00602dU, 0x1e1d22f581daf8U, 0xa000000e4f7e500U,
  0xe300480000146c15U, 0x41d64481e94100c4U, 0xbe4913d0cedU, 0x103fedd8f40cbd15U,
  0xdef6ea42009a15e0U, 0xe9002a2621dad8edU, 0xf82100fcf821c041U, 0x1c163be00ed362U,
  0xda107f7600f6d4U, 0xf41d00cfe72400U, 0xdcf1cfb80090c01eU, 0x13caf6d5f6001d0aU,
  0x3ab5121e00de39U, 0xeceb1e8100000c53U, 0xf1d0fb00b31af1d0U, 0xa3128b100270027U,
  0xef0025e91634dfU, 0x432ceb27e2ead0U, 0xc2d155000ee8819fU, 0xafebe7d0dd0010e2U,
  0xf7bde70013eaef18U, 0x19d6009917b2c717U, 0xcf09e124000024f7U, 0x23af00ce0de7d700U,
  0x34d3cd06edf34f00U, 0x200b1490f61be4c0U, 0xe118f0008100eacdU, 0x2f3900dbf8d855d9U,
  0xf70f091b13b8f3f4U, 0xfa00edf518d8cf1bU, 0x3af30000e5535bU, 0x2c22bc8e001d1c86U,
  0xacb001381da0dc4U, 0xdd308001600cd21U, 0x1ae916000944000cU, 0xf3244913e9b5dee4U,
  0x34de380c00e90028U, 0x1dce7fdaebce00U, 0x2b4000aac5ce2cc9U, 0x2532d8001ed89600U,
  0xe2e325bff1afe219U, 0x159aec2c3b00bcc3U, 0x99d316003581a3U, 0x52284fbd26aad117U,
  0x3310f39535a83340U, 0xd8cdf200ed70c700U, 0xf1e100cad91bf52aU, 0xc6dde727c6ef00U,
  0xda0b2d0a151d0e25U, 0xb1ec00ea2100cb7fU, 0xedc20eee300029efU, 0xf011e5d6f0d456f8U,
  0xfa0adcf300001406U, 0x1fb51313c7e123f6U, 0x1445000001b8U, 0x17b000008edU,
  0xfffff36c00001b5aU, 0x7180000092fU, 0x46dfffffd26U, 0x130b000028eaU,
  0x10f700000ae7U, 0x133000010aaU, 0x6b9b004ce61a6820U, 0x32ab741eed0081U,
  0xdee11f138100deU, 0x2250ab4ec10082a1U, 0xb6afffff525U,
};


ai_handle g_network_weights_table[1 + 2] = {
  AI_HANDLE_PTR(AI_MAGIC_MARKER),
  AI_HANDLE_PTR(s_network_weights_array_u64),
  AI_HANDLE_PTR(AI_MAGIC_MARKER),
};

